n </w>
e r
e </w>
e n</w>
c h
t </w>
e i
er </w>
, </w>
u n
s </w>
e n
d </w>
i e</w>
. </w>
s t
a n
e l
m </w>
s ch
r </w>
i n
a u
a l
d er</w>
g </w>
i ch
un d</w>
t i
ei n
a r
d ie</w>
o r
d en</w>
i e
g e
o n</w>
t en</w>
o n
e s</w>
i n</w>
z u
t e</w>
un g</w>
g en</w>
s s
r o
ch </w>
m i
h r
a t
o l
d a
i s
f ü
b e
d e
: </w>
v on</w>
r a
l ich
v er
u r
i t
e t
c k
i l
f </w>
a </w>
r e
R </w>
zu </w>
t er
mi t</w>
el l
E R</w>
a b
e h
U M
B ER</w>
S ie</w>
N UM
NUM BER</w>
$ NUMBER</w>
w i
m m
o </w>
i er
fü r</w>
d er
S t
is t</w>
i g
s p
ein e</w>
d e</w>
r ei
ei n</w>
i sch
en t
u s
e u
a ti
au f</w>
el </w>
) </w>
( </w>
l a
A n
V er
t e
S ch
w er
ei t</w>
l </w>
ich </w>
e m</w>
a n</w>
- </w>
n en</w>
da s</w>
g e</w>
a m
d es</w>
s e</w>
I n
un gen</w>
u t
b er
g en
e s
a ch
o r</w>
ich t</w>
w ei
a h
b ei
r i
0 </w>
z </w>
e b
de m</w>
u m</w>
d i
D ie</w>
" </w>
t er</w>
i m</w>
o t
a s</w>
al l
f f
P ro
e m
a hr
l i
i el
b er</w>
ä n
o m
k </w>
ch en</w>
S p
d ie
lich </w>
al </w>
B e
au s</w>
U n
s ich</w>
a s
un g
a r</w>
an d
a f
r u
wi r
d u
ol l
n a
z en</w>
p p
st ell
n icht</w>
wer den</w>
ö n
R e
l ei
o m</w>
o der</w>
s in
an d</w>
w en
A u
k ti
r ü
ge b
ein en</w>
y </w>
G e
f or
st en</w>
sin d</w>
al s</w>
l o
d en
ein er</w>
g t</w>
i s</w>
k t
o h
er n</w>
an n</w>
au s
u r</w>
E r
ss en</w>
on en</w>
l e</w>
h al
r an
s s</w>
ch e</w>
u m
/ </w>
au ch</w>
E in
w ie</w>
A r
au f
1 </w>
i mm
a t</w>
s t</w>
i r
l e
2 </w>
E n
wir d</w>
ung s
2 0
k o
t s
eh r</w>
ü ber</w>
s er
ein em</w>
die s
ck </w>
u s</w>
s ie</w>
l ie
g i
et z
sch en</w>
k t</w>
k ön
in g
A l
z ei
da ss</w>
a ss
I hr
a m</w>
5 </w>
te t</w>
j e
h ab
g el
l en</w>
t ung</w>
bei </w>
isch en</w>
D as</w>
ä r
s i
st e</w>
o p
u l
d ur
sch af
na ch</w>
b </w>
b en</w>
lich e</w>
g an
M a
ter n
m en</w>
ü r
kön nen</w>
w ar
isch e</w>
ati on</w>
f er
i en</w>
ä h
v i
g er
t a
r au
z i
3 </w>
k eit</w>
ier t</w>
O r
wi r</w>
v e</w>
s o
lich en</w>
l u
A us
K on
ro ß
r ä
i </w>
iel e</w>
w ur
e t</w>
V or</w>
h er
J ahr
8 </w>
ö r
? </w>
r ie
D er</w>
ch n
l in
m a
4 </w>
f in
i k
sch </w>
it ä
ier en</w>
zu m</w>
o ch</w>
hab en</w>
l an
a d
t ra
ü n
ge s
L i
t ei
an der
w e
e ss
h at</w>
us s</w>
an n
v or
n eu
0 0</w>
t z
i hr
un ser
o g
ig e</w>
C h
Z o
f t</w>
6 </w>
T a
e x
h r</w>
zu r</w>
st er</w>
imm er</w>
ch t</w>
k ann</w>
dur ch</w>
s en</w>
A b
a p
s a
g roß
D ie
s o</w>
9 </w>
20 1
l ä
B er
n e</w>
en d</w>
p er
Zo om</w>
in g</w>
W i
E x
en t</w>
f en</w>
a ten</w>
– </w>
h o
D at
ar t
ge m
p ro
fü hr
n ur</w>
7 </w>
isch </w>
k l
de t</w>
M on
il d
t s</w>
m ö
Pro du
mm en</w>
i en
! </w>
p f
r it
or t</w>
ä l
H er
b t</w>
f ol
v or</w>
b is</w>
M ar
ss e</w>
un ter
k on
ei </w>
Z u
ell e</w>
ck en</w>
H ot
i st
sch e</w>
ge h
for m
ati on
e st
ü ber
b ar
V or
F or
g r
o b
ut z
en den</w>
er t</w>
h eit</w>
en s
E s</w>
ä hr
s on
m us</w>
der n</w>
c e</w>
eh en</w>
wur de</w>
k te</w>
ei ten</w>
ati onen</w>
mi t
l at
s u
w ar</w>
un d
l ung</w>
el t</w>
i er</w>
ge w
itä t</w>
t re
K o
S </w>
I n</w>
ge sch
Au f
f ahr
ti on</w>
m ehr</w>
al e</w>
o k
om p
un s</w>
A </w>
all e</w>
b ie
S u
k en</w>
h </w>
. .</w>
s ein</w>
ti g
b r
b e</w>
ß </w>
a g
Ge sch
un den</w>
En t
ar bei
M e
M i
ri p
S o
d ung</w>
en de</w>
y st
a ch</w>
ro p
er en</w>
T an
M it
ab er</w>
wen n</w>
Ihr e</w>
i g</w>
w as</w>
e p
Un ter
s ich
h e</w>
el t
h nen</w>
a k
x </w>
sch ie
die se</w>
U m
T e
e -
. ..</w>
M en
G r
eu t
V i
l au
a se</w>
l and</w>
eh men</w>
schaf t</w>
or t
g as
C o
e g
M o
& </w>
q u
o s</w>
h in
r ich
be st
g lei
P er
f t
ti g</w>
n och</w>
hal ten</w>
Wi r</w>
eb en</w>
D eut
g ra
wi ck
W ei
o w
E u
d ar
er k
D </w>
s el
en n</w>
gas mus</w>
E </w>
Jahr en</w>
N </w>
ah r</w>
st r
etz t</w>
n i
m e
ei t
Tan zen</w>
i el</w>
R oll
l er</w>
s er</w>
m er</w>
ein es</w>
dies er</w>
v om</w>
na pp
st en
wei ter
Li ve</w>
l ü
' </w>
i gen</w>
st ü
P ar
B o
u t</w>
C </w>
sch uss</w>
m an</w>
ell </w>
al en</w>
n er</w>
ei te</w>
ier ung</w>
z wei
ß en</w>
ach t</w>
A ut
ell en</w>
; </w>
m e</w>
ö ff
Or gasmus</w>
Sch napp
mö g
re ch
n ah
Q u
Schnapp schuss</w>
i c
S er
un ter</w>
L ie
In form
o ff
sch n
W enn</w>
kti v
ti gen</w>
il </w>
D i
b en
ah l</w>
f e</w>
T o
St rip
h af
sp iele</w>
en n
el e
te ase</w>
Strip tease</w>
F a
da </w>
s ehr</w>
s ol
ä u
R ei
il l
an t
d ig
in n
G es
W eb
fin den</w>
fü g
P rei
gi bt</w>
F lu
u </w>
Ü ber
m o
el n</w>
au </w>
b ar</w>
I ch</w>
m p
ab </w>
F ü
oh n
R o
mm en
z eu
stell ung</w>
al l</w>
ä ch
b in
ent r
B </w>
K in
ti k
B et
mit t
ber ei
h ei
S e
Hot el</w>
t ungen</w>
+ </w>
Ö l</w>
% </w>
w ie
b l
o v
g er</w>
L a
f rei
h e
m in
I hnen</w>
1 9
ein f
T ei
B a
ild o</w>
Roll en
k e</w>
h ö
i z
i k</w>
u n</w>
geb en</w>
Rollen spiele</w>
s e
t en
el s</w>
t es</w>
ti ge</w>
stell en</w>
st at
so wie</w>
ko mmen</w>
p </w>
m en
i a</w>
ö s
B u
J ahr</w>
K un
er n
k un
sp iel
i ti
ihr e</w>
St ad
N ach
ö ß
s oll
z e</w>
kti on</w>
F ing
- S
T </w>
k auf
1 0</w>
be t
H o
Ex tre
H au
m m</w>
in e</w>
L e
l t</w>
s k
ach en</w>
I m</w>
ge f
G eb
er e</w>
M in
h ier</w>
Flu g
ander en</w>
st er
H am
Extre mer</w>
Un tern
K ar
stell t</w>
ver s
Fing ern</w>
R au
ver wen
rü n
de ut
Eu rop
m ü
er ung</w>
v oll
I hr</w>
C am
ol og
k m</w>
L ei
Inform ationen</w>
in ter
sch w
dies em</w>
F ran
Z eit</w>
N e
sch rei
Mi t</w>
G er
M us
P o
ier te</w>
st än
E in</w>
h and
Die se</w>
den en</w>
d ann</w>
b o
ch ten</w>
ie h
wi schen</w>
w or
zu sa
k eine</w>
b li
g n
D e
. c
sp e
c </w>
ch er</w>
m al</w>
s en
W o
1 0
G </w>
st a
ch te</w>
B il
ru pp
i v
L u
l er
at er
ck e</w>
L </w>
s at
i h
an g</w>
lich keit</w>
g ab
bie tet</w>
z wischen</w>
In tern
n ach
O </w>
. 0
Un d</w>
ver schie
20 0
€ </w>
w ich
f ra
s eine</w>
| </w>
i hr</w>
B es
or d
Ar bei
du </w>
z immer</w>
p a
k eiten</w>
z eit</w>
F re
Sp iel
ss en
ur e</w>
S on
ff en</w>
w </w>
g l
St u
i on</w>
T h
I </w>
P </w>
Mon aten</w>
zwei </w>
B ei
ei gen
r in
rei ch</w>
S h
ol </w>
In st
ro </w>
An al
b eit</w>
A d
E U
h äl
Kon ta
geb o
at or</w>
groß e</w>
f e
er g
m ar
h at
N eu
Deut sch
ti on
ge s</w>
ig er</w>
P h
neu e</w>
F ra
ähr end</w>
Re gi
Ham ster</w>
x Hamster</w>
unser e</w>
in a</w>
eu te</w>
or en</w>
wur den</w>
ä tz
Ver füg
oh ne</w>
ün st
eb en
be ss
Men schen</w>
m an
fer n
L in
al ität</w>
H and
M et
t ro
Per s
sch lie
for der
g ung</w>
W e
.c om</w>
W in
a v
lat z</w>
w oh
D es
be g
aus ge
wei se</w>
w el
K at
ander e</w>
es en</w>
i m
H </w>
yst em
di en
al is
D aten</w>
st al
U S
al ien</w>
u ten</w>
w ür
p h
ob il
h er</w>
W ass
lin e</w>
b ung</w>
kti on
G en
F ahr
yst em</w>
zei chn
f f</w>
Te chn
Fü r</w>
F ar
w a
T ra
all en</w>
ar d
m ei
ä f
ah l
P ol
ck t</w>
a st
an z</w>
p o
J u
la ge</w>
mi l
a d</w>
fahr en</w>
dies es</w>
it z
W ar
Z us
s ehen</w>
son der
dur ch
m el
haf en</w>
Pro je
O n
V </w>
öff ent
b st</w>
ich t
Dat ei</w>
f re
M </w>
b u
E -
F er
am en</w>
be sonder
ko mm
gan g</w>
re ss
eh t</w>
F ot
F </w>
S ti
mü ssen</w>
Jahr e</w>
at ür
op </w>
en z
W elt</w>
m b
kun ft</w>
ni sse</w>
B au
it te</w>
unser er</w>
äh len</w>
Pro gra
en z</w>
hal b</w>
Ein e</w>
ul t
K ü
r on
Ent wick
d rei
groß er</w>
ier ten</w>
m er
d o
S a
ti t
R u
as t</w>
Untern ehmen</w>
W er
n is</w>
vi ce</w>
ent wick
Ar tik
su chen</w>
M an
k ten</w>
X X
Stad t</w>
k ann
ter n</w>
m a</w>
t h
p er</w>
d ru
W ir
st ar
E R
M il
en k
schaf t
b il
Produ kte</w>
g s
t o</w>
sten lo
Ber ei
» </w>
L o
kt u
h än
st au
zei gen</w>
d och</w>
l et
gr öß
ch en
h ol
ater i
wir k
W ohn
S eite</w>
F il
führ t</w>
Flug hafen</w>
- P
1 8</w>
n e
an ge
un der
Deutsch land</w>
d ing
ge gen</w>
M ö
D ur
k omp
Pro z
O p
Dat en
zu rü
fin det</w>
F in
ich te</w>
ti ert</w>
st e
W ie</w>
la ssen</w>
i on
St a
ig keit</w>
v iele</w>
T ran
p rü
D ildo</w>
isch er</w>
Be wer
at e
C on
z ieh
- B
g el</w>
ä d
Al le</w>
m achen</w>
de s
H ei
en e</w>
neu en</w>
gen d
U r
A pp
F un
K li
X </w>
l än
St and
es t</w>
I t
G ot
G ra
Ta g</w>
E r</w>
stü tz
en ten</w>
war e</w>
sch ei
b ur
Au f</w>
s h
In ter
k la
D a
Sp iele</w>
P u
bie ten</w>
wie der</w>
w ährend</w>
n atür
Rau chen</w>
y p
an z
ö l
einf ach</w>
lich er</w>
an k</w>
lei st
D o
B en
Ko mm
B l
b el
ar e</w>
si on</w>
Ge w
w oll
v iel
am e</w>
ß e</w>
s einer</w>
c o
ati v
rau </w>
n te</w>
st and</w>
s es</w>
P f
Hot els</w>
k ur
ü ck
en d
l etz
w o</w>
er halten</w>
a te</w>
Me di
lie gt</w>
ver b
mm er</w>
di g</w>
al t</w>
G em
be sch
et te</w>
m ich</w>
A N
ri v
K </w>
ch t
D ien
ur en</w>
au t
in gen</w>
ihr er</w>
ein z
schaf ten</w>
m pf
s or
St r
Ihr em</w>
Z immer</w>
m ie
en en</w>
g ut</w>
woh l</w>
Un i
ß er
war en</w>
D u
B i
c i
en te</w>
kauf en</w>
T er
An wen
ent sp
L än
A p
ar d</w>
Pro f
er sten</w>
st ehen</w>
zusa mmen
di re
w eit</w>
Prei s</w>
w elt
ent fern
z ep
Ihr en</w>
K unden</w>
t r
l eb
da mit</w>
ich er
en s</w>
0 0
är e</w>
w ort</w>
2 0</w>
st off
F rei
m uss</w>
ar i
C H
tei l
sat z</w>
bar keit</w>
schlie ß
3 0</w>
u te</w>
p t
g lie
rit zen</w>
geh en</w>
ie der
sch ein
B ar
o e</w>
Des ig
B ro
f er</w>
et er</w>
vi el</w>
es s</w>
te chn
sel bst</w>
entr um</w>
Sch la
p ar
Pro bl
- T
n et</w>
Z ei
Sp ra
da ß</w>
in nen</w>
E l
rei chen</w>
H a
in tern
rupp e</w>
Konta kt</w>
Artik el</w>
P a
hal t</w>
Anal d
b au
K omp
ie s</w>
N utz
hat te</w>
N ach</w>
G o
fol gen
Wei ter
Zus a
kti onen</w>
So ft
si te</w>
k s</w>
m ent</w>
elt oe</w>
v ol
d ungen</w>
sp iel</w>
en nen</w>
Lie fer
t o
ein ig
mög lich
P art
at ur</w>
h t</w>
ge stellt</w>
Cam eltoe</w>
f a
an g
on e</w>
ti onen</w>
dies en</w>
ti eren</w>
br ator</w>
la gen</w>
er st
o b</w>
G ar
] </w>
[ </w>
T u
el d</w>
h en</w>
all s</w>
a ktiv
g te</w>
R es
fü gt</w>
W as</w>
spe zi
St ra
entfern t</w>
a z
n ehmen</w>
am p
pro </w>
Ver k
In n
L eben</w>
er s</w>
Kin der</w>
et zen</w>
gan is
ti gt</w>
Uni vers
For sch
Ihr er</w>
Dat ei
i zi
ihr en</w>
gel n</w>
st ru
h oh
G roß
son dern</w>
w ach
lä ss
g ar
mi r</w>
t rä
f ass
ü h
Vi brator</w>
I S
Sp e
et t
S k
p rä
ra </w>
1 .
ges am
best imm
- K
j etzt</w>
Vi de
5 0</w>
P ass
m on
ff e
H in
S c
C hr
il s</w>
p ol
et a
U m</w>
Gesch äf
sp ro
em pf
arbei ten</w>
l uss</w>
die s</w>
et was</w>
L ös
ah n
drei </w>
ut zen</w>
Ar t</w>
zei gt</w>
b lei
1 2
intern ation
En gl
f te</w>
bei m</w>
1 2</w>
Tei l</w>
sch ön
rei ch
un kt</w>
verwen det</w>
hab e</w>
Web site</w>
itä ten</w>
B r
Al l
pro du
Gr und
Ta gen</w>
C omp
Mö g
En erg
kl är
f iz
ein s
Z eit
be wer
al i
s eit</w>
M ateri
S icher
e hr
gab e</w>
me hr
An gebo
olog ie</w>
o f</w>
Er geb
z o
le x
stau ran
D ru
k er</w>
un de</w>
M ehr</w>
s ätz
en .
g s</w>
nah me</w>
d ow
unser en</w>
d at
sch war
p latz</w>
sch on</w>
k ün
tra g</w>
be kann
T i
er fol
a ge</w>
Th em
us t</w>
ut z</w>
z w
st ra
Fran k
S y
p ass
a c
ach e</w>
L eb
gan z</w>
b ild
E N
berei ts</w>
it u
ein ige</w>
ä t</w>
mög lich</w>
st u
stell er</w>
Entwick lung</w>
K a
1 1</w>
E N</w>
ä t
schrei bung</w>
Fer ien
at s
I N
e ch
an al</w>
N äh
geh ör
be findet</w>
1 8
s einen</w>
at ur
B ei</w>
Mo d
Mit glie
l ö
M ess
Ser vice</w>
Zusa mmen
f est
an stal
w ählen</w>
Deut sch</w>
h l
h n
ent s</w>
groß en</w>
s etz
W or
o s
H ol
Sp iel</w>
Al s</w>
D eta
ex </w>
m al
Bes u
be w
J e
tei l</w>
te te</w>
om ati
a ktu
Re stauran
Su che</w>
St ar
ar beit</w>
e d
v er</w>
rie b
st o
P ra
ier e</w>
E ig
z ahl</w>
rit t</w>
ei ch
it y</w>
1 5</w>
i t</w>
Ne w
be sten</w>
in s</w>
gel e
verschie denen</w>
Die s</w>
re sse</w>
glei ch</w>
H aus</w>
Hau pt
ie d
ran k
Sch wei
P la
D ar
fü l
B el
al t
Kar te</w>
ih n</w>
c a</w>
all es</w>
A t
s ei
n o
K om
N or
tra gen</w>
Arbei ts
ar sch</w>
g lich</w>
« </w>
K ör
h in</w>
en ti
L and
T ex
Mit t
prü fen</w>
b rau
schw anz</w>
O b
in s
f lä
häl t</w>
bur g</w>
Lei st
Die ses</w>
An t
E- Ma
h eute</w>
st imm
Produ kt
ati ve</w>
t lich</w>
at er</w>
ta g</w>
Ho ch
t ä
An al</w>
eg or
G ol
It alien</w>
an t</w>
Leb ens
ko stenlo
H il
F rü
führ en</w>
Er fahr
sch u
s eite</w>
f äl
B ü
Näh e</w>
a de</w>
om e</w>
K ur
E le
e f
M ie
f un
st eht</w>
glei ch
og ra
mm e</w>
1 5
B eh
R a
ding ungen</w>
an den</w>
weiter e</w>
C ar
S o</w>
C as
Or t</w>
K re
den e</w>
w a</w>
B as
R ück
E S
for t</w>
Ver bin
m u
soll ten</w>
ih m</w>
em ber</w>
lü ss
la den</w>
tig keit</w>
1 .</w>
H ier</w>
g ri
F u
um en</w>
h el
S ü
Co ok
gem acht</w>
A ber</w>
ele f
sch ine</w>
dire kt</w>
L and</w>
am er
wel che</w>
Berei ch</w>
n ung</w>
A c
ge gen
bar e</w>
än der
A R
Verfüg barkeit</w>
ti sch</w>
S ol
ä ß
i hnen</w>
tei le</w>
… </w>
Sch n
te m
ill a</w>
Bei spiel</w>
Geschäf ts
ü t
D u</w>
je doch</w>
tit ten</w>
c m</w>
on line</w>
Mil li
ü l
B ild
k li
g än
A ktiv
W </w>
Kun st
eh m
ver l
La ge</w>
S al
h a
äh n
ho ch
B un
W erk
z z
Ar beit</w>
al ten</w>
m us
P rä
ver füg
Ar ch
verwen den</w>
er ste</w>
h aus</w>
- F
r .</w>
Aut o
a gem
z er
2 .
gen o
Ben utz
schn it
wei l</w>
komm t</w>
En de</w>
d ro
r icht</w>
ho f</w>
h eiten</w>
Au ch</w>
Pers onen</w>
ation s
hei ts
V ol
or e</w>
I mm
geh t</w>
rau en</w>
be s
s icht</w>
ic </w>
kl eine</w>
Dur ch
n äch
A m</w>
Qu alität</w>
l in</w>
k ar
D is
Ch ar
lin e-
0 6</w>
wei ter</w>
n lo
st ern</w>
G eh
d an
t ran
g ar</w>
ti v
wir t
s etzen</w>
K ir
W a
ell er</w>
a .</w>
Wass er</w>
f alls</w>
b st
Wo che</w>
$ </w>
gr und</w>
soll te</w>
st and
hr en</w>
Produ kt</w>
0 7</w>
H ö
h au
U p
ut er</w>
P ort
K ön
mel den</w>
I T
tro l
Re g
ur b
Ba de
k u
am ate
w in
F ol
f ang</w>
M ot
K ap
inn er
ä us
Soft ware</w>
k a</w>
1 6</w>
k ein</w>
gi en</w>
sich er
den n</w>
l eben</w>
r än
al d</w>
in o</w>
k or
sp ra
EU R</w>
fü gen</w>
b a
z entr
b i
br ingen</w>
n er
kt ur</w>
rau m</w>
F est
L A
en der</w>
re chen</w>
S ystem
e d</w>
Ü ber</w>
1 6
h aus
Kat egor
Un ser
Wo chen</w>
ap an
m äß
Kun den
f ik
b la
In du
s el</w>
li ck</w>
lan g</w>
1 4
st ei
V on</w>
B itte</w>
N etz
Ch ina</w>
n un</w>
P al
per s
amate ure</w>
h ör
Chr ist
c t
U N
Bro w
b au</w>
0 8</w>
mo der
il l</w>
0 1</w>
an zeigen</w>
O ber
Win dow
zeu g</w>
da bei</w>
Min uten</w>
da zu</w>
wa gen</w>
unser em</w>
gab en</w>
sch ö
Gem ein
t un</w>
K l
n ten</w>
gen d</w>
o k</w>
Die ser</w>
in st
ver mie
T it
fra ge</w>
ti sche</w>
Cook ies</w>
an ten</w>
ach ten</w>
Gesch ichte</w>
Sp an
schließ lich</w>
führ ung</w>
Sch u
mi li
ti er
st är
We g</w>
zu g</w>
ge sp
Be schreibung</w>
F ir
R ah
Unser e</w>
F all</w>
I mp
Prei se</w>
v en
D ow
Desig n</w>
F la
we gen</w>
d au
I s
fre und
A T
ge führt</w>
Deta ils</w>
Be sch
eigen en</w>
D -
W elt
ß t</w>
G u
et wa</w>
Gr öß
ti schen</w>
Bil der</w>
B al
eu rop
Fra gen</w>
f ri
Ver anstal
1 3
berei ch</w>
r e</w>
Europ a</w>
1 9</w>
Got t</w>
eu ch</w>
Verfüg ung</w>
nah men</w>
je der</w>
ie b
Ver s
wer k</w>
fü h
Dien st
Bil d</w>
er klär
an der</w>
H e
1 3</w>
Unter kunft</w>
z er</w>
Wass er
P re
K ult
all em</w>
ei gn
U hr</w>
s -
ck er</w>
gen ie
Mit arbei
wi ssen</w>
m acht</w>
_ </w>
Schla f
gen en</w>
en -
lä u
re gi
z ah
sol l</w>
d el
rie ben</w>
woll en</w>
zurü ck</w>
sch in
ok um
oll e
ich ts</w>
zusa mmen</w>
g ünst
o t</w>
p rei
ell schaft</w>
G ä
mil ie</w>
Tu be</w>
for m</w>
z in
Pers on</w>
Bewer tungen</w>
On line-
i d
Ber lin</w>
K u
ges etzt</w>
Frü h
zurü ck
lich es</w>
rie b</w>
p lat
O R
Li ste</w>
ess e</w>
ör der
J un
geb ung</w>
zei t
mö chten</w>
, 00</w>
1 -
Ta ge</w>
geno mmen</w>
o ur
j ähr
h under
di </w>
Ex p
S ystem</w>
Datei en</w>
isch es</w>
Probl em
Cam p
vi er</w>
T elef
A m
1 7
m eine</w>
Her steller</w>
ver sch
i p
w ohn
Frank reich</w>
frei </w>
w ahl</w>
ü tz
Progra mm</w>
öffent lich
l and
F e
al er</w>
all er</w>
mitt el
di gen</w>
Fot os</w>
b in</w>
p la
s y
r is
sch er</w>
i de
* </w>
T em
glei chen</w>
W et
s einem</w>
.0 00</w>
tei len</w>
mitt el</w>
h il
2 4
zusammen stellung</w>
eh len</w>
f ast</w>
K la
mei sten</w>
1 4</w>
sch ri
z ahl
R ich
L E
de u
schn ell</w>
mi ss
2 5</w>
au ßer
b itte</w>
Bu ch
Intern ation
K ra
N amen</w>
ä ischen</w>
f rü
ra tion</w>
Ver wen
Fra ge</w>
For m</w>
l ungen</w>
sp ar
sta g</w>
2 2</w>
o -
rei fe</w>
P lat
zu sätz
besonder e</w>
pp el
entsp rech
der en</w>
1 ,
K op
ff izi
U </w>
op ti
viel en</w>
bar en</w>
an te</w>
bli ck</w>
sich er</w>
201 9</w>
B lick</w>
M är
letz ten</w>
Tei l
Sch w
Intern et</w>
g ent
sch la
w ahr
li g</w>
et s</w>
® </w>
tig ung</w>
B ra
Z iel</w>
on d
st ad
v est
li gen</w>
f ten</w>
j apan
G la
stän d
Imm obil
Dow nlo
Mon at</w>
pro f
Komm ent
0 5</w>
o ben</w>
un ser</w>
Go og
Mie t
Pass wort</w>
G mb
ig n
M al
it z</w>
hel fen</w>
ver ge
Kli ma
Gen er
l or
j a</w>
G ruppe</w>
an ce</w>
w and
k om
unter schie
w o
ü ck</w>
lich keiten</w>
b as
sch t</w>
b el</w>
stell ungen</w>
aut omati
kla ss
C O
c o</w>
ver k
Kü che</w>
B .</w>
Spra che</w>
Fa milie</w>
P riv
a -
forder ungen</w>
Eu ro</w>
Ver sion</w>
al so</w>
sch utz
p unkt</w>
li </w>
sch en
L an
b rei
g rün
tei lung</w>
T r
j e</w>
stü ck</w>
Son n
wür de</w>
Ad resse</w>
T he</w>
H al
st urb
Mar k
3 0
K an
Sp ritzen</w>
an gebo
. de</w>
agem ent</w>
ist or
Spe zi
lei ch
ssen schaft
B lo
lo ssen</w>
verfüg bar</w>
verschie dene</w>
G rün
r at
Wir t
z el
S el
an lage</w>
Z um</w>
sch a
Gmb H</w>
Regi on</w>
n utzen</w>
inner halb</w>
d it
Unter stütz
p u
Te am</w>
vermie tung</w>
j un
an a</w>
Stu di
S il
natür liche</w>
et t</w>
r und</w>
Her r
pol iti
G el
d ort</w>
besonder s</w>
201 8</w>
f äh
blei ben</w>
M or
wie der
is h</w>
f r
Weiter e</w>
ver bess
Far be</w>
unter stütz
t -
sp ä
rich ten</w>
gen de</w>
er st</w>
ol o
m et
b ri
Ele kt
wirk lich</w>
it al
z ös
gem eins
an k
US A</w>
L a</w>
G ei
ag er</w>
Z wei
en zen</w>
vi c
D om
A L
stad t</w>
kt or</w>
Größ e</w>
G i
Rah men</w>
Tran s
ben ö
m ann</w>
bei den</w>
i d</w>
schaf ts
spiel en</w>
dru ck</w>
leist ungen</w>
gen ann
Anald ildo</w>
te ten</w>
In di
pers ön
zu ge
an o</w>
best eht</w>
2 4</w>
Mög lichkeit</w>
arbei tet</w>
per fe
d rü
l auf
ele kt
d ür
str ie</w>
ktion s
lo b
Ö ff
N ov
E v
Hil fe</w>
wich tig
St re
je den</w>
Ge gen
u p</w>
au ss
arbei tung</w>
wen iger</w>
D a</w>
sten s</w>
Wei se</w>
de ssen</w>
er -
w är
l es
ab hän
te m</w>
Ges am
entwick elt</w>
k enn
S T
Di re
f ern</w>
Univers ität</w>
on a</w>
folgen den</w>
u g
z ü
1 7</w>
ot wen
H ome</w>
unterschie d
for t
F eh
da ten</w>
y -
Ur lau
f lu
ch s</w>
flä che</w>
um e</w>
k re
ver fügt</w>
K or
ta ge</w>
N o
I de
Goog le</w>
K ünst
sturb ation</w>
i um</w>
F ach
An zahl</w>
v </w>
inst all
eu er</w>
bekann t</w>
For m
Window s</w>
lä t
Verbin dung</w>
l esen</w>
F rau</w>
i te</w>
ausge stat
2 5
Kör per</w>
an zu
st ie
pp el</w>
A k
lan ge</w>
sch utz</w>
utz t</w>
N ieder
i r</w>
l es</w>
tre ten</w>
zeichn et</w>
rei che</w>
an s</w>
M ün
inter ess
au t</w>
s ü
ch er
D okum
er war
er lau
Auto vermietung</w>
sp er
äh l
T re
er reichen</w>
st eh
an ischen</w>
eu er
Restauran t</w>
Par k
vol l</w>
3 .
P latz</w>
g ute</w>
A G</w>
Ko stenlo
sp ritzen</w>
an gen</w>
sa gen</w>
lei cht</w>
schein t</w>
it e
dig keit</w>
ut ter</w>
4 0</w>
Wir k
Or ganis
so gar</w>
Erfahr ung</w>
p s</w>
B re
P ap
be dingungen</w>
kon nte</w>
s enden</w>
su cht</w>
än de</w>
F lü
la r</w>
Inst it
bla sen</w>
Ch e
ch e
S ep
m s</w>
Lu ft
Anald in</w>
Fa mili
To ur
stat t</w>
e te</w>
m als</w>
f il
S in
Z entrum</w>
erfol g
so zi
l en
t .
S at
ch s
äd chen</w>
On line</w>
2 -
so wohl</w>
er hö
s ie
S an</w>
M at
4 .
frei e</w>
e ssen</w>
Geb äu
d ich</w>
z un
p en
f eh
rupp en</w>
j ahr</w>
Proje kt</w>
Ges und
P at
k ü
2 1</w>
lie gen</w>
sat z
Au ss
Regi str
Eig en
ge t
V iel
Um gebung</w>
ver bin
z iert</w>
le gen</w>
E-Ma il</w>
eu r</w>
t el</w>
ch es</w>
st ri
k ra
c a.</w>
ti n</w>
er forder
ci al</w>
p lan
Ä n
Schwei z</w>
Ein zel
y s</w>
um fass
ie t</w>
g ern</w>
b is
Dur ch</w>
vi du
M u
b ra
Lie be
Le hr
be ste</w>
V is
rit te</w>
ihr em</w>
Ver einig
Mus ik</w>
T ro
i o</w>
po si
w ass
J an
E mpf
me di
Bet rieb
Milli onen</w>
mi schen</w>
Aus wahl</w>
ig ar
Jahr hunder
Ap art
stän dig</w>
Anal y
w es
d r
sch lu
Ger ä
Ex per
En g
S -
Lie be</w>
er z
Aktiv itäten</w>
sk u
t u
f ig
n u
D r.</w>
ma sturbation</w>
St o
S ie
201 5</w>
P -
p or
äh lt</w>
kli cken</w>
Unterstütz ung</w>
i sten</w>
schwar z</w>
in gt</w>
F rauen</w>
sch luss</w>
tz e</w>
v ier
Energ ie
ber g</w>
R A
Zu </w>
is mus</w>
z ung</w>
lo s</w>
welt weit</w>
Ter ra
p riv
er weise</w>
sku geln</w>
fü n
M än
kön nte</w>
T ab
gef unden</w>
v is
v öl
Liebe skugeln</w>
i ve</w>
eign et</w>
Dru ck
gen den</w>
ein ander</w>
m erk
In f
eu m</w>
ein mal</w>
P lan
a den</w>
oh n</w>
Kir che</w>
stell e</w>
C or
Anwen dung</w>
G ro
än dern</w>
kti ve</w>
d re
kl einen</w>
r et
M obil
W ahr
dar auf</w>
Lös ung</w>
verge ssen</w>
Ergeb nisse</w>
Sch ul
St unden</w>
Pu zz
aus zu
eu ch
C li
sch au
w ort
ma schine</w>
ar t</w>
ativ en</w>
Auf ent
G al
Z </w>
S or
te gr
Ob je
g ten</w>
Komm un
da von</w>
in ge</w>
Do ppel
ess ion
bild ung</w>
v o
1 00</w>
w under
J es
deu tet</w>
ant wor
je wei
Stand ard
Problem e</w>
ge geben</w>
da für</w>
L og
er möglich
Ser vic
N ame</w>
Brow ser</w>
f i
c on
9 .
Angebo t</w>
schrei ben</w>
S am
© </w>
lin g</w>
Ma i</w>
ab ri
lä tze</w>
z t</w>
t on</w>
sa mm
l ös
t ungs
ö hn
wer k
or ganis
ig in
Web seite</w>
Intern et
” </w>
“ </w>
n or
J a
her unter
N ation
p ra
b zw
rich tungen</w>
Lu x
dru ck
ig h
R O
al o
bzw .</w>
je de</w>
kt o
unterstütz t</w>
XX X</w>
mög lichen</w>
eb o
il le</w>
ti </w>
rei fen</w>
T he
ein ger
ich ts
mehr ere</w>
il len</w>
i ck
In hal
ent er</w>
J etzt</w>
z eh
J av
n ied
setz ung</w>
ab el</w>
sp ru
Materi al</w>
o te</w>
H aus
ah n</w>
lo k
C -
er h
zieh en</w>
kl us
f ung</w>
O ff
m ess
ch sel
Verwen dung</w>
ei cht</w>
o ft</w>
Them a</w>
M ik
l a</w>
D re
K rank
g ruppe</w>
0 4</w>
Sicher heit</w>
New s
wor den</w>
rip t</w>
° </w>
te x
Ges ellschaft</w>
Wohn ung</w>
ler nen</w>
an c
Far ben</w>
ich ten</w>
zei tig</w>
empf ehlen</w>
ti k</w>
Probl em</w>
rei cht</w>
f ran
d -
re g
Proz ent</w>
fer nen</w>
Ö ster
et z</w>
ss t</w>
N u
y s
Aut o</w>
di r</w>
fun ktion
ti fiz
N acht</w>
H D</w>
F rie
wer t</w>
lie fer
we g
9 0</w>
O kto
Sep tem
ermöglich t</w>
g lau
w it
öff nen</w>
E ben
0 2</w>
ges ehen</w>
z .
or b</w>
j ahr
be finden</w>
w ill</w>
d is
un ten</w>
s ei</w>
wei ß</w>
de cken</w>
Kin der
op er
Inst all
F al
f rie
einz el
mi sche</w>
0 9</w>
t liche</w>
l s</w>
St äd
S eiten</w>
hin aus</w>
L auf
Part ner</w>
Proje kt
ß en
V al
i ff
Me er</w>
w al
s etzt</w>
s c
Engl isch</w>
Fin anz
Mitarbei ter</w>
Zu kunft</w>
A -
ik a</w>
3 -
Mar kt</w>
be deutet</w>
c t</w>
Mo du
genie ßen</w>
Septem ber</w>
on s</w>
y p</w>
Span ien</w>
in dem</w>
gele gt</w>
ein igen</w>
F eb
z en
Jun i</w>
ab spritzen</w>
gan zen</w>
h äu
öff net</w>
f ar
an ische</w>
as i
Sh op</w>
Er fol
Ein satz</w>
n eh
v in
L it
pp en</w>
201 6</w>
War enk
Lös ungen</w>
hat ten</w>
Ne w</w>
dar f</w>
sp h
be zo
Ge f
n ichts</w>
j en
M ei
ati sch</w>
ein ge
je dem</w>
si onen</w>
Re ch
St ro
stat tung</w>
W el
ser v
prä sen
Fa c
H af
H y
on g</w>
ah </w>
201 7</w>
or f</w>
gan ze</w>
er sch
Okto ber</w>
ich tet</w>
at eg
Kun st</w>
M ass
in di
te sten</w>
t in
n otwen
Au g
T XXX</w>
l ungs
H el
per son
um s</w>
t he</w>
H ar
Angebo te</w>
M er
komp let
R E
ab il
Comp uter</w>
tei lt</w>
k am</w>
b ü
ur t</w>
mi er
Be deut
Ein f
B ab
internation alen</w>
H inter
g ab</w>
ier ungs
ck ung</w>
stoff e</w>
W ieder
N atur</w>
gehör t</w>
Po si
Dienst leistungen</w>
e .
A ktu
wich tig</w>
Z ur</w>
gri ff</w>
Schlaf zimmer</w>
Z imm
ir gend
gen au</w>
Spiel en</w>
in es
ieh t</w>
gr und
In vest
All gem
In halt</w>
hö ch
LA N</w>
B lu
Ba d</w>
Met ho
B rü
di tion
wi er
5 0
Ihr es</w>
K enn
P rin
h y
her r
B us
ig ht</w>
sp rech
Warenk orb</w>
ri st
sch ung</w>
ti ve</w>
Arbei t
5 .
ant wort
Län dern</w>
Z er
W ert</w>
m ass
St e
o d
sch le
n ie</w>
ck s</w>
us e</w>
2 3</w>
ko sten</w>
Ap r
ran k</w>
F ern
ent schei
c ro
gesam t</w>
g il
de m
H u
Str and</w>
ul ti
f eld</w>
ig keiten</w>
der zeit</w>
Ent schei
gen heit</w>
é </w>
bess er</w>
L icht</w>
zeu ge</w>
gesch lossen</w>
s il
sa gte</w>
Sp ort
h istor
w äre</w>
Ru ss
Z ur
Sch war
Bade zimmer</w>
H D
em al
Un ser</w>
e ten</w>
hau p
Techn ologie</w>
W ährend</w>
ar ch
Nutz ung</w>
schlie ßen</w>
la ss
Rau m</w>
Fü hr
News let
0 ,
s eh
zuge fügt</w>
we g</w>
schin en</w>
2 .</w>
re gel
Z eiten</w>
Z we
An der
Gä ste</w>
Ver t
Bewer tung</w>
c el
W ach
Kon z
eben falls</w>
ung ss
af e</w>
it zen</w>
Tran sp
F i
19 9
Ju li</w>
rich tung</w>
auf ge
f al
d ildo</w>
kti eren</w>
je des</w>
Miet wagen</w>
M al</w>
Bedeut ung</w>
Ferien wohn
läss t</w>
A S
Sch ritt</w>
gen e</w>
Mär z</w>
S ho
üh m
z ier
3 2</w>
ko sten
fra gen</w>
t nis</w>
D E</w>
mm er
pu bli
Got tes</w>
# </w>
H and</w>
sto ff</w>
wei s</w>
B on
pro gra
s am
P C</w>
E T
pp e</w>
De z
ell eicht</w>
@ </w>
D I
trä ge</w>
D em
neu </w>
Telef on</w>
Komp on
6 0</w>
P un
rün ette</w>
ff t</w>
Beh and
pa ar</w>
Ge stern</w>
Engl ish</w>
F el
W al
ra cht</w>
K al
Mitt el
Kategor ie</w>
un tern
gend liche</w>
wirt schaft
Feb ru
erlau bt</w>
st re
Gr und</w>
m ein</w>
re cht</w>
be kommen</w>
z. B.</w>
li k
El em
V illa</w>
gegen über</w>
T est
wei s
m at
Jan u
ow </w>
si den
er neu
T ür
Sta aten</w>
Aut om
gr enz
einz igar
ik en</w>
Mot or
lex i
M ann</w>
i an</w>
0 3</w>
P an
o ber
r el
Urlau b</w>
fahr t</w>
t sch
2 8</w>
min de
Men ge</w>
Apr il</w>
in n</w>
Produ ktion</w>
2 ,
bel ieb
indi vidu
Star ts
R el
Kön ig
itä ts
ung spro
zu fügen</w>
Neu e</w>
An ti
v e
ger ade</w>
ot he
d el</w>
ausgestat tet</w>
gew öhn
Nov ember</w>
3 5</w>
mäß ig</w>
Fun ktion</w>
il la
P en
Hot el
201 4</w>
2 7</w>
hoh e</w>
A n</w>
in tegr
zei ten</w>
Dez ember</w>
b y</w>
P au
St ru
V oll
alis ierung</w>
on n
St .</w>
in du
folgen de</w>
weiter en</w>
ent hält</w>
c ia</w>
P i
an ge</w>
7 -
M ädchen</w>
Terra sse</w>
ser vice</w>
K n
Febru ar</w>
T V</w>
ing -
b ank</w>
wei sen</w>
Ma ß
d ungs
8 .
Roll e</w>
Res er
E L
gi g</w>
g a
rei se</w>
Fot o</w>
B la
do ppel</w>
lo g
ge stal
r en
K rie
näch sten</w>
m ale</w>
her vor
P ri
Sa mm
Inn en
Ph il
Unter schie
äch lich</w>
imm t</w>
• </w>
m or
h ar
Du sche</w>
A mer
Janu ar</w>
K lei
h eit
Vor teile</w>
Bl umen</w>
iel t</w>
ber ühm
gil t</w>
Downlo ad</w>
e ffizi
k ä
ei st
natür lich</w>
er fahren</w>
F o
ativ </w>
Per son
P e
R is
m ent
201 3</w>
ko p
ein zu
Mik ro
Anwen dungen</w>
O N
4 -
Me hr
de te</w>
Rei he</w>
sp rechen</w>
G eld</w>
5 -
Zusammen arbeit</w>
an al
so fort</w>
Än der
it t
ell es</w>
hö r</w>
wen ig</w>
Be g
a da</w>
Bun des
An frage</w>
g lichen</w>
w ä
D ann</w>
S eit</w>
er fül
eigen e</w>
y er</w>
M ein</w>
Vide o</w>
zi p
C A
Rei se
Qu al
D an
k lei
f u
Sch ön
fol gen</w>
ent halten</w>
lan gen</w>
Öster reich</w>
Forsch ung</w>
M ein
on d</w>
u e</w>
I I</w>
3 1</w>
sp ann
Energ ie</w>
Sch rei
mi eren</w>
t zen</w>
ver t
be hör</w>
Gesam t
N atur
är en</w>
f all</w>
Immobil ien
aus gew
P rü
Y </w>
ch ar
Gew icht</w>
ges etz
bu chen</w>
v ie
d rau
sa gt</w>
2 6</w>
Fac ebo
Re cht</w>
ogra f
lan g
Newslet ter</w>
W un
Gar ten</w>
J o
w elt</w>
Pu bli
er häl
CH F</w>
ti e
Kon to</w>
as s</w>
Su pp
dig it
Starts eite</w>
er weiter
Zu gang</w>
k ult
St at
soll en</w>
voll e</w>
L eute</w>
geb aut</w>
mil f</w>
N ur</w>
de fin
kostenlo s</w>
i den
Imp ress
ins besondere</w>
än d
Kommun ik
Aug ust</w>
hand elt</w>
Y o
st es</w>
201 2</w>
spä ter</w>
ver läss
w ill
S ant
Sch we
il -
dar über</w>
fran zös
zei ge</w>
iz z
Up dat
k at
ver öffentlich
W LAN</w>
Klima anlage</w>
Mus eum</w>
Sch au
Mar kt
S I
Inform ation</w>
An forderungen</w>
An fang</w>
ahn hof</w>
7 .
Tem per
äus er</w>
Wet ter</w>
g ing</w>
Verk auf</w>
s ystem
ent fernen</w>
ett bewer
Hö he</w>
O ut
N icht</w>
T ur
al es</w>
Progra mme</w>
Au s</w>
Stad t
mö chte</w>
Sonn en
Fun ktionen</w>
S P
6 .
W est
Ka ffe
Sicher heits
z ell
An melden</w>
k a
di tion</w>
Er weiter
ma x
Untern eh
Eigen schaften</w>
e chn
Ver bess
B ru
h ot
Rich tung</w>
on nen</w>
D ank</w>
da her</w>
V ari
Arch ite
u p
Forsch ungs
n eben</w>
li ste</w>
su ch
d eine</w>
Ergeb nis</w>
lü ck
k einen</w>
Al ter</w>
Met er</w>
ä m
fün f</w>
S itz
in form
ing s</w>
K auf
8 0</w>
Instit ut</w>
m ateri
z ieren</w>
Gebäu de</w>
Cas ino</w>
vol u
i ten</w>
ig ung</w>
hal tung</w>
all er
Inn ov
ähn liche</w>
kar te</w>
P ress
In sel</w>
stü tzen</w>
tig er</w>
et ten</w>
2 9</w>
durch geführt</w>
un k
Früh stück</w>
j ung</w>
pf lich
schö nen</w>
B ur
D ig
ti ges</w>
n ation
V -
Par is</w>
Sch lüss
ck -
ch ter</w>
aktiv iert</w>
M eine</w>
n immt</w>
Kult ur</w>
Priv at
G re
L ond
Sch utz</w>
Mög lichkeiten</w>
sch ir
al ter</w>
0 .
D inge</w>
Ko sten</w>
4 5</w>
W ol
ie m
we der</w>
e y</w>
D el
re du
ann e</w>
l us</w>
C lu
EU </w>
ge st
geb racht</w>
m ents</w>
V I
sper ma</w>
Pra kti
Jes us</w>
Daten schutz
Pf lan
m ach
C re
m ati
G et
Er de</w>
ber eit</w>
all gem
ru h
P ati
gew ähr
um en
at or
H or
japan isch</w>
M el
h ang</w>
i ges</w>
Ent fern
A ir
Fin den</w>
Is ra
Her zen</w>
dien en</w>
f s
b ungen</w>
Ser ie</w>
4 9</w>
sol che</w>
di o</w>
ver ur
Ar ten</w>
B at
art ner</w>
be vor</w>
sch lä
- R
schnit t</w>
c e
M A
k ehr
W ahl</w>
d rin
T ri
Län ge</w>
f el
den ken</w>
ist ischen</w>
ter s</w>
um p
L eben
au er</w>
O S</w>
kon ta
lei tung</w>
j em
rit ten</w>
öffent lichen</w>
kün fte</w>
. net</w>
Ser ver</w>
s a</w>
S an
en ster</w>
3 3</w>
wi ssenschaft
st et</w>
ann t</w>
D E
zeu gen</w>
Sp a
p ort
3 .</w>
ges a
schön e</w>
men sch
Puzz le</w>
regi str
hoh en</w>
S m
S i
ent lich</w>
ding s</w>
C D</w>
is on</w>
tra g
A ss
Pol y
k ei
App </w>
F lor
T op</w>
k ul
pra kti
ge stell
M y
Be zieh
st ung</w>
R om
en g
f la
wach sen
änder t</w>
Veranstal tungen</w>
2 8
C ol
un be
Mus ik
mitt eln</w>
i onen</w>
kauf t</w>
prei s</w>
n ehm
wür den</w>
S ing
Web s
er ie</w>
em p
ein schließlich</w>
ge eignet</w>
S au
scha ffen</w>
schn all
zu stellen</w>
Stra ße</w>
Or igin
Me er
t chen</w>
New s</w>
2 6
Hol z
lät ter</w>
auf grund</w>
Materi alien</w>
alo g</w>
Um schnall
Umschnall dildo</w>
S ex</w>
alis iert</w>
G lau
p lätze</w>
fer enz</w>
g rü
M I
D ra
d ischen</w>
ung sp
er w
d lich</w>
y l
Wi ssen
Tra in
n a</w>
K amer
Benutz er</w>
Zur ück</w>
S itu
T ä
St ell
Nach richten</w>
Rei se</w>
sch i
Z ahl
erhäl tlich</w>
sel n</w>
ff e</w>
M an</w>
tern e</w>
W ählen</w>
Kon trol
L I
K il
star k</w>
h ät
in t
3 4</w>
-T V</w>
Besu cher</w>
201 1</w>
Sp eich
Updat es</w>
Restauran ts</w>
ger ne</w>
zah len</w>
verb unden</w>
Er d
Spiel er</w>
wer de</w>
su che</w>
f ig</w>
T her
Zei chen</w>
P or
mpf e</w>
Lin ks</w>
m einer</w>
on der
ger ä
kl einer</w>
P D
Wach st
y a</w>
b ald</w>
europ äischen</w>
M ich
etz ung</w>
e v
An dro
ä ß</w>
men s</w>
Komment are</w>
Feh ler</w>
M utter</w>
F äl
ti c
Par k</w>
y na
Min i
we gung</w>
a mi
Fal un</w>
Op tion</w>
s weise</w>
Facebo ok</w>
ru ss
an gen
Ver gleich</w>
jun gendliche</w>
tra dition
deut schen</w>
haf t</w>
u en</w>
V en
f est</w>
Her aus
Part ner
größ ten</w>
sch wer
a is</w>
S eh
Ma g
b le</w>
- Datei</w>
Fu ß
Ho st
herunter laden</w>
dar an</w>
Leist ung</w>
hoch wer
Aufent halt</w>
äch st</w>
kann st</w>
N ord
Camp ing
H eute</w>
Sel bst
ver suchen</w>
ab e</w>
unser es</w>
y le</w>
zeu g
b rünette</w>
Men ü
b ad</w>
t lichen</w>
ot s</w>
Vers and
bet ro
s ent
— </w>
ut t
J a</w>
ss es</w>
M om
L ab
E is
Them en</w>
Ber g
our c
Pol i
Kü hl
Pro t
ä ische</w>
ar en</w>
S ter
unter stützen</w>
t au
ber u
stell ungs
spiel te</w>
C H</w>
Mar ke</w>
be suchen</w>
b lau
S en
Bar cel
K amp
9 ,
W ien</w>
Re zep
0 -
dig t</w>
Impress um</w>
L es
H imm
V o
Kom bin
automati sch</w>
ni ssen</w>
Be dingungen</w>
hin ter</w>
M erk
Op tionen</w>
verbess ern</w>
haus gemacht</w>
L esen</w>
r y</w>
er in</w>
Kon zep
best ä
s au
Medi en</w>
Ver b
g u
fol gt</w>
Au ßer
Fil m</w>
al te</w>
en det</w>
v en</w>
Internation al</w>
Kategor ien</w>
ck en
Bal k
spiel t</w>
gehör en</w>
Arch iv
201 0</w>
m ut
inn t</w>
Mod ell</w>
de ten</w>
ra d</w>
kei ts
k rä
V ater</w>
Her z
D enn</w>
vi elleicht</w>
ak ter
So zi
Co de</w>
ver ste
f lü
wirk ungen</w>
B or
Er n
Um welt
S ex
ges ell
it ze</w>
U S</w>
ei l
o .</w>
Gei st</w>
Mitglie der</w>
Re gel</w>
Europ äischen</w>
² </w>
l d</w>
An bie
ic a</w>
g lob
wichtig sten</w>
Behand lung</w>
D on
N av
W ell
Or d
Wi der
O N</w>
kt ur
Proje kte</w>
t z</w>
ab en</w>
ti s</w>
Ti pp
Gerä te</w>
p un
ig t</w>
Her r</w>
Ger ät</w>
ab ge
Ma d
iti k</w>
Rech ts
Tit el</w>
ar ten</w>
sch es</w>
ün sch
2 7
s ystem</w>
Lond on</w>
Vide os</w>
Hau se</w>
st ein</w>
st anden</w>
F örder
be achten</w>
sp rä
R at
tre ffen</w>
y c
asi atisch</w>
D L
W ein
voll en</w>
K eine</w>
sch rank</w>
C lo
er reicht</w>
Tei le</w>
G ast
f or</w>
L ö
er stellen</w>
3 ,
Par tei
on -
D en</w>
deut lich</w>
ab el
Mi ss
Zu behör</w>
schu le</w>
in for
t yp
mel dung</w>
pa ssen</w>
br ingt</w>
zi g</w>
er ei</w>
einf ach
neh mer</w>
Inst ru
W il
ten si
Mon ate</w>
A si
gen er
blei bt</w>
ol e</w>
ä ft</w>
nu mmer</w>
ins gesamt</w>
Mitglie d</w>
Soft war
zwei ten</w>
So mmer</w>
Proz ess</w>
dig ung</w>
g uten</w>
inn ov
ak zep
klus ive</w>
erk ennen</w>
vers or
publi k</w>
N E
Su per
F äh
Sc ript</w>
min ist
internation ale</w>
wi mm
el s
Au ßen
ver kaufen</w>
Künst ler</w>
rich tig</w>
Kli cken</w>
Publi k
Fir ma</w>
ger ung</w>
W h
ier ungen</w>
Bas is</w>
entwick eln</w>
da r</w>
o us</w>
k s
ot en
A G
f as
t form</w>
ger e
g ol
e ffe
mo d
spiel sweise</w>
Län der</w>
R i
sph äre</w>
Flü ge</w>
D en
kt oren</w>
kon trol
ver antwort
neu es</w>
Sp ei
3 8</w>
ge m</w>
= </w>
dür f
W er</w>
ber t</w>
erforder lich</w>
gel ö
Tex t</w>
ähr ung</w>
E del
Kör per
Far b
minde stens</w>
ch nen</w>
d o</w>
Kin dern</w>
Reg ierung</w>
W ettbewer
kün f
tz entrum</w>
sp eich
Dom a
’ </w>
kult ur
E M
N eben</w>
Indu strie</w>
d s</w>
Kin d</w>
Gesund heit</w>
te st</w>
k rank
R ä
ik o</w>
V iele</w>
drau ßen</w>
gemeins am</w>
m einen</w>
z a</w>
ell a</w>
t ats
ber eit
Z iel
mi ert</w>
d ra
t ritt</w>
m in</w>
umfass t</w>
Prof il</w>
Wa sch
Vers and</w>
Jav a
E P
vor her
stimm ung</w>
is e</w>
H om
er te</w>
h ier
w er</w>
ß er</w>
Ber u
Bu ch</w>
ir e</w>
D och</w>
T I
Mod elle</w>
B ür
gesam ten</w>
pf le
öffent lichkeit</w>
olo gien</w>
wich tige</w>
B ran
Au gen</w>
Sp ort</w>
C ap
T or
stat t
H all
un abhän
Install ation</w>
Re ss
gar an
G leich
s ieht</w>
ver stehen</w>
F abri
ord nung</w>
ris e</w>
y si
Da mit</w>
amer ik
tran sen</w>
Mi cro
lat t</w>
k an
Män ner</w>
Al t
ogra ph
nach hal
T op
ing er</w>
de ta
A mar
S A
it ten</w>
art en
L AN
ch ines
Co mm
u ell</w>
ch mal</w>
it al</w>
Nach richt</w>
schla g</w>
Sti l</w>
Kra ft</w>
wer ke</w>
la s</w>
we chsel
D ab
j u
z e
Erfol g</w>
qu e</w>
gesam te</w>
an zen</w>
bet t</w>
St ück</w>
W ander
Ge füh
Al b
aktu ellen</w>
vor h
B -
Hau t</w>
Man agement</w>
l auf</w>
Barcel ona</w>
gleich zeitig</w>
führ er</w>
Su ch
Z ah
tr et
i de</w>
Dar über</w>
E S</w>
en bezo
B I
kon nten</w>
el te</w>
V ir
gew or
bau en</w>
un i
wen ige</w>
benö tigen</w>
sp rün
el e</w>
größ te</w>
J oh
e c
zei chen</w>
B ot
techn ischen</w>
eh ef
M ulti
spezi f
Z entr
Er wachsen
da m</w>
Besu ch</w>
Ander e</w>
Aus stellung</w>
B ä
Sch wer
ü b
lie ben</w>
sch ul
best eh
Li z
oh l
be tra
Dab ei</w>
Produ kten</w>
kön nten</w>
An zeige</w>
h a</w>
rei s</w>
m obil
9 9</w>
Mün chen</w>
untern ehmen</w>
hö her
Ein ige</w>
Sch ri
Stad tzentrum</w>
stie g</w>
b s</w>
4 1</w>
- St
H ard
d lichen</w>
Java Script</w>
Son der
f ts
Lin ie</w>
rech ts</w>
b lo
mar kt</w>
E ffe
off izi
Bus in
ehef rau</w>
3 7</w>
C a
völ k
prof ession
gem äß</w>
pass t</w>
möglich keiten</w>
r en</w>
in t</w>
D rei
C an
g o</w>
de ckt</w>
Posi tion</w>
8 -
3 6</w>
sch we
Leist ungs
Stand ard</w>
zo gen</w>
b s
Bun ker</w>
m 2</w>
Wor k
Ver fahren</w>
t he
R ot
vorh anden</w>
lei sten</w>
äu fer</w>
i ö
ach t
b ein
Ba ck
beg innen</w>
h nach
notwen dig</w>
3 9</w>
wen den</w>
st ik</w>
über ra
be qu
wi der
Wi ssen</w>
L ager</w>
Ant wort</w>
Desig n
20 0</w>
200 9</w>
it es</w>
n ö
L eu
in f
Sü d
vor zu
K am
tit tchen</w>
ab sol
Q </w>
ist ische</w>
in -
D V
W är
K olle
ma ß
Ferien haus</w>
h och</w>
Jahrhunder t</w>
Tei len</w>
4 3</w>
Erfahr ungen</w>
t ri
Po ol</w>
s an
hand arbeit</w>
entwick lung</w>
Bet rieb</w>
ass e</w>
k ör
hör en</w>
bei spielsweise</w>
st ä
D ol
Balk on</w>
en gl
n äh
W C</w>
f and</w>
W ort</w>
k ennen</w>
Mit te</w>
frei en</w>
S ohn</w>
brau chen</w>
op s</w>
h ast</w>
I r
Gemein de</w>
ital ien
k al
ma il</w>
zeichn ung</w>
Unter künfte</w>
E ss
Mi o.</w>
K er
­ </w>
g st</w>
F l
u d</w>
kom bin
Ver öffentlich
her aus
Be zug</w>
einzel nen</w>
Proz ess
Lin k</w>
sel ben</w>
r ing
T yp</w>
ens wür
de st
N et
Ver arbeitung</w>
zusätz liche</w>
h ne</w>
inter ra
ö t
gel ei
Gla s</w>
st a</w>
ro s</w>
mö gen</w>
J izz
f ot
person enbezo
am s</w>
verur s
Jizz Bunker</w>
Außer dem</w>
z war</w>
auf zu
Amar illa
miss ion</w>
lin ien</w>
S lo
um in
her gestellt</w>
Inhal te</w>
f ör
T O
Zu stand</w>
G a
Y or
0 00</w>
Sch lie
G am
ste chn
P ak
hin zufügen</w>
or s</w>
ra t</w>
mar k
R ad
g o
B ar</w>
2 9
ex e</w>
y n
st ige</w>
ei en</w>
al -
dig keiten</w>
A C
di ent</w>
sich t
win digkeit</w>
ver ein
de ss
Wei hnach
E rei
5 5</w>
er möglichen</w>
jen igen</w>
t her
hol z</w>
n is
Ma x
f rau</w>
bestimm ten</w>
Bes onder
Konta kt
ei gent
bil d</w>
R I
Wi ssenschaft
K ol
z entrum</w>
. ...</w>
l l
bl ond</w>
da p
fri ka</w>
n t</w>
Famili en
o d</w>
erfolg reich</w>
at s</w>
T ats
p re
Berei chen</w>
H ER
h ung</w>
om eter</w>
g ro
Pf le
Sm art
Geb ur
Fahr t</w>
ol l</w>
Arbei ten</w>
üt zen</w>
zeh n</w>
sch wier
Ter min
k unden</w>
en er</w>
ell ig
E-Ma il-
rei ten</w>
dan ken</w>
Elekt ro
For men</w>
kl ein
veröffentlich t</w>
angebo ten</w>
4 ,
letz te</w>
interra cial</w>
zü glich</w>
m einem</w>
g -
Kre u
7 0</w>
n ess
einig ung</w>
Park platz</w>
erfol gt</w>
I st</w>
bu ch</w>
m und</w>
les ben</w>
k ri
b ro
Re chn
schön heit</w>
glei che</w>
Techn ik</w>
d d
st ro
Komment ar</w>
s eines</w>
pla n</w>
rü mpfe</w>
Netz werk</w>
s .
f el</w>
at h
Su chen</w>
N icht
ar ig</w>
or gasmus</w>
Verbess erung</w>
A ch
ange zeigt</w>
wass er
Ver pa
en des</w>
E ssen</w>
Ti ck
lös ung</w>
moder nen</w>
h l</w>
gesp eich
ier ende</w>
un ver
b a</w>
Re a
wel ches</w>
St elle</w>
v a</w>
spra ch</w>
It al
f lexi
6 -
elekt r
rich tige</w>
S eine</w>
F alls</w>
K ro
In s
lie fern</w>
G rie
Leben s</w>
gn is</w>
ab le</w>
lich t</w>
ver fügen</w>
Be wegung</w>
f ei
lin ie</w>
c re
V ie
Organis ation</w>
bestimm te</w>
fü r
H on
Fre unde</w>
in e
g ül
enn t</w>
war um</w>
Ein richtungen</w>
am a</w>
il e</w>
Situ ation</w>
zeu gt</w>
genann ten</w>
Gol d</w>
be glei
g liche</w>
sie he</w>
pen et
en g</w>
rich tigen</w>
d ein</w>
for men</w>
Sk i
ck te</w>
ge ber</w>
St or
gem el
ge grün
Produ ktions
gesch rieben</w>
Geb iet</w>
siden t</w>
tra gs
O per
wirt schaft</w>
S E
n ern</w>
lin ks</w>
Star t</w>
C al
ab zu
ein gesetzt</w>
U R
rei ber</w>
Isra el</w>
W ill
un a</w>
kla r</w>
L O
neu er</w>
er stellt</w>
- -
k am
f ang
in en</w>
er inn
L e</w>
B ahnhof</w>
x is</w>
Au str
4 8</w>
sp a
Menü </w>
G ruppen</w>
Ber at
St eu
C u
Inter esse</w>
Ge sprä
ru fen</w>
C om
M P
Edel st
Wirt schaft</w>
y r
on s
B an
Untern ehm
Re p
Hau st
P et
En d
schri ft</w>
c ar</w>
C O</w>
w eb
sam keit</w>
Rei sen</w>
persön lichen</w>
Ress ourc
gesp rä
stru ktur</w>
To ol
f örder
Kar ten</w>
erst ör
lö sen</w>
ateg ie</w>
ier ter</w>
Deut sche</w>
in k
ie fer
zu verläss
Nav ig
P il
Sy mb
kun fts
rech te</w>
5 00</w>
sp ir
C enter</w>
s itz
sp rü
Ver änder
\ </w>
ti s
or g</w>
z y
geb iet</w>
oh len</w>
J er
em in
bli othe
wer te</w>
neu e
m es</w>
Cli ps</w>
gesa gt</w>
erwar tet</w>
Hin zugefügt</w>
Kult ur
Ein kauf
leist ungs
wer t
Bo den</w>
rei sen</w>
ver hin
Eben e</w>
st rie
mm ern</w>
Zusammen hang</w>
Port ug
M -
Kombin ation</w>
Pati enten</w>
f tung</w>
g ut
penet ration</w>
Eig ent
st an
Gro up</w>
lo s
V it
› </w>
C ity</w>
Fest iv
ele v
F A
Anbie ter</w>
an melden</w>
i mp
se chs</w>
komm un
führ te</w>
ra s
as h
elekt ron
L icht
gel aden</w>
G ele
Nieder lan
O l
zwei te</w>
voll ständig</w>
Wahr heit</w>
u g</w>
ier enden</w>
App lik
T au
ov </w>
k ür
Herr n</w>
W and
Qu elle</w>
Zimm er
ander er</w>
hei ßt</w>
deut sch</w>
hin ter
Prei s
Apart ment</w>
T ie
N äch
ver n
In seln</w>
s am</w>
an gel
M au
St and</w>
Un ter</w>
Jahr es</w>
schri ften</w>
schö n</w>
m o</w>
men te</w>
l ern</w>
Neu </w>
dau er</w>
Sch utz
War um</w>
Schu le</w>
ander em</w>
Bl umen
Maß nahmen</w>
s on</w>
O st
ar a</w>
R oh
wahr schein
ta in
N r.</w>
aktu elle</w>
ges ichts
sy ch
v el</w>
R en
Kre dit
Tipp s</w>
so mit</w>
ig sten</w>
z es</w>
B ank</w>
weiter hin</w>
Änder ungen</w>
Hei l
el ten</w>
Jahr es
L etz
pf er</w>
W ür
Daten schutz</w>
Wohn zimmer</w>
geb oren</w>
T wit
m än
St off
Über sicht</w>
4 2</w>
jewei ls</w>
Z ahl</w>
land s</w>
W o</w>
B ri
Men sch</w>
bei de</w>
Hol z</w>
Sant a</w>
kostenlo se</w>
ep ar
Re chte</w>
i pp
drei er</w>
groß </w>
Be dürf
Ferienwohn ung</w>
in i</w>
fa ssen</w>
c .</w>
Servic es</w>
nah e</w>
Betrieb ss
einz ige</w>
Wer bung</w>
au m</w>
medi zin
Grund lage</w>
Wet ter
am ung</w>
Tem p
Mark et
ütz t</w>
ex tre
rä u
um b
S and
Städ te</w>
n ü
T aus
h or
9 5</w>
t a</w>
Ver ein
ur sprün
k ünst
ri d</w>
Kommunik ation</w>
bestimm t</w>
P S</w>
Wirt schafts
Stu d
Spezi al
techn ik</w>
olog ische</w>
än den</w>
d ische</w>
Frank f
Bau ern
Sch ü
en a</w>
d .
S eit
wä sche</w>
olog ischen</w>
st rümpfe</w>
Schn itt
St euer
ück sich
S ign
t nisse</w>
i ckt</w>
Indu strie
i o
eben so</w>
gesichts bes
Press e
beg innt</w>
To ur</w>
br auch</w>
tex t</w>
lo ss</w>
wal tung</w>
fol ge</w>
ag ra
Nation al
ru s</w>
bew ahr
Kostenlo se</w>
bet rä
L er
voll er</w>
K e
U l
y o
Pro </w>
Her stellung</w>
beg ann</w>
produ kte</w>
de aktiviert</w>
m alen</w>
verl ieren</w>
enn ung</w>
ber ech
gemel det</w>
st lichen</w>
a gen</w>
Leist ungen</w>
ge wi
Analy se</w>
In t
hervor ra
Ex tra
Entfern ung</w>
Win ter</w>
h eu
ide al</w>
N atür
stän de</w>
At mo
leist ung</w>
Ham burg</w>
Zus ätz
te gra
US -
lok alen</w>
Bl ut
ü hr
an nen</w>
Pro vin
B ank
entsprech enden</w>
N a
bar er</w>
gel a
L -
f lie
le hr
Mess e</w>
op h
T E
gesichtsbes amung</w>
b lätter</w>
5 9</w>
F lä
or te</w>
techn ische</w>
leb t</w>
V in
Liefer ung</w>
Famili en</w>
Re publik</w>
gen ug</w>
e ur
ter t</w>
ad s</w>
tion s
Andro id</w>
Aut omati
tier te</w>
h em
ti fik
ti erung</w>
I T</w>
Ma schine</w>
be hand
lo se</w>
Sy n
n ungs
zahl reiche</w>
Spa ß</w>
mi </w>
l l</w>
plat te</w>
f en
Bo ote</w>
her aus</w>
For um</w>
Ma schinen</w>
Spiel freie</w>
Himm el</w>
M acht</w>
ko mmen
Hin weis</w>
entsprech end</w>
om et
H ig
Seh enswür
fäh igkeit</w>
B rau
ch an
w and</w>
spru ch</w>
b ru
Mar ia</w>
19 8
le x</w>
än ger</w>
T -
Dru ck</w>
end s</w>
A g
a ff
p ä
6 0
Unternehm ens
dru cken</w>
4 4</w>
Ab end</w>
D an</w>
St art
u ch</w>
häu fig</w>
auf nahme</w>
alis ieren</w>
B rie
G lob
besch äf
Kap it
rä ume</w>
k g</w>
L at
rü stung</w>
Schwar z</w>
k el</w>
des halb</w>
ei m
G ran
10 .
D ist
S im
A U
R ob
Wo chen
di o
Aus stattung</w>
moder ne</w>
Unterneh mens</w>
fass ung</w>
Kühl schrank</w>
de x</w>
Al ler
hil ft</w>
unterschied lichen</w>
Stu die</w>
ger ät</w>
k el
einf ache</w>
In nen</w>
ständ ige</w>
R -
Fäl len</w>
Ber lin
ihr es</w>
erklär ung</w>
nach dem</w>
la g</w>
Kompon enten</w>
le g
eh er</w>
Kl ein
F enster</w>
h äuser</w>
Al tern
Unter such
mehr eren</w>
w us
er ien</w>
Krank en
der t</w>
konta ktieren</w>
r ö
ver gan
st eu
l eu
funktion iert</w>
Beg inn</w>
Kön ig</w>
A M
S S
Fran zös
Po st
Ac c
C at
Ko s
Be völk
f a</w>
l it
Bi o
gesch n
Son ne</w>
A B
u de</w>
hal t
verste ckt</w>
bil der</w>
S ens
f all
Vereinig ten</w>
Gesch ma
Yor k</w>
ähl te</w>
D r
4 6</w>
Fu ß</w>
be ob
mess er</w>
sp richt</w>
Verk ehr
Russ land</w>
Fabri k</w>
perfe kt</w>
nah m</w>
präsen tiert</w>
Her z</w>
Unterschie de</w>
F -
aktiv </w>
B rei
ss p
woll te</w>
k ap
Techn olog
den .
ystem e</w>
Apart ments</w>
w il
wass er</w>
b ist</w>
o si
ie gel</w>
Spra chen</w>
9 -
antwor tung</w>
ck ner</w>
dar in</w>
H O
Wirk ung</w>
Nutz er</w>
El tern</w>
außer dem</w>
spezi ell</w>
g eist
b an
ktiv </w>
ab l
g y</w>
po ol</w>
Dat um</w>
A v
Pre mi
ger t</w>
Fil m
Mitglie d
Aus gabe</w>
Ju gend
erg än
spiel zeug</w>
rech ten</w>
Viel zahl</w>
ver fahren</w>
R om</w>
B ul
un t</w>
schw er</w>
wahrschein lich</w>
ele gan
ä st
gew esen</w>
A P
einf lu
sätz e</w>
Techn ologien</w>
an lagen</w>
Mom ent</w>
Tür k
All es</w>
be halten</w>
um s
häl tnis</w>
Trans fer</w>
s ex
bil den</w>
k rie
mass age</w>
To d</w>
h eb
Un ion</w>
Artik el
Su b
Kar r
Ho use</w>
7 5</w>
F I
F it
Al umin
Ph ot
geb ie
I den
G ut
d orf</w>
in tensi
kt uren</w>
an ti
Be stellung</w>
Mo der
Bau m
B eit
wi ssen
Sch ne
EU -
ra d
F ak
ä r</w>
kt or
W inter
j </w>
h en
ing s
k er
System e</w>
regel mäßig</w>
komplet t</w>
Hei zung</w>
D or
In iti
Ge wich
Schwei zer</w>
Kom fort</w>
gef ähr
Auf gabe</w>
Stand ort</w>
Groß e</w>
Gr ö
Bat ter
w s</w>
D eb
verantwort lich</w>
T sch
Spra ch
ie ßen</w>
w esen</w>
jewei ligen</w>
jahr e</w>
Europ e
führ ten</w>
k lin
außer halb</w>
Um welt</w>
angebo te</w>
ann es</w>
Ph one</w>
ch tig</w>
Gesch en
US D</w>
all ein</w>
F ei
Pol itik</w>
Ma gn
n ess</w>
Bet t
ent decken</w>
A spe
l y</w>
perfe kte</w>
be tre
z in</w>
Bei trag</w>
Mad rid</w>
F R
Clu b</w>
XX X
mo du
Comp u
Registr ieren</w>
gewor den</w>
Re c
i ce</w>
i -
ex ist
ge öffnet</w>
An gaben</w>
4 0
Zo g</w>
sich ten</w>
hal ten
Gefüh l</w>
Form at</w>
HD Zog</w>
be deut
C ro
ges ellschaft</w>
T un
Lo gi
install iert</w>
Se e</w>
Inter ess
G ong</w>
zieh t</w>
Ge stal
histor ischen</w>
gew innen</w>
Christ us</w>
T yp
dür fen</w>
b abe</w>
mi erung</w>
priv aten</w>
St ellen</w>
Sehenswür digkeiten</w>
Bre ak
benö tigt</w>
a el</w>
g yp
em a
Hau p
Land schaft</w>
Be stimm
deut sche</w>
mei st</w>
c ur
-S h
rän k
F li
je derzeit</w>
gen utzt</w>
Stro m
re serv
St är
N ahr
ch ern</w>
oten zi
inform ationen</w>
Techn ische</w>
sh op</w>
N ot
gi gen</w>
vi a</w>
bes itz
König reich</w>
japan ische</w>
eigen es</w>
ander s</w>
K auf</w>
4 .</w>
S terne</w>
völ lig</w>
geh end</w>
Ges etz
vie w</w>
Entschei dung</w>
Kontrol le</w>
ma x</w>
kon zentr
Ven e
Sch at
H Clips</w>
be ein
lan gs
Ma il</w>
Ober fläche</w>
Zeit punkt</w>
Buch ung</w>
le -
so ft</w>
A b</w>
5 8</w>
5 ,
Daten bank</w>
R ab
tats ächlich</w>
wich tigen</w>
Haust iere</w>
K ri
par k</w>
ch em</w>
tä glich</w>
Stu den
hät te</w>
Wissen schaft</w>
f li
Twit ter</w>
X o
ver mei
Bild ung</w>
indu strie</w>
gespeich ert</w>
sozi alen</w>
Zwe cke</w>
e au</w>
rit ann
s al
Z illa</w>
l le</w>
200 8</w>
Europ car</w>
zu dem</w>
ver ständ
Ler nen</w>
ktiv en</w>
g ie</w>
K art
Z iele</w>
P unkt</w>
k ret
pro je
f allen</w>
n ie
Invest iti
i ss
n o</w>
un gen
S K</w>
Sh emal
Men schen
Kop f</w>
füh len</w>
Fran ç
g reifen</w>
A li
Prei sen</w>
dess ous</w>
Kauf en</w>
v ari
Stru ktur</w>
K oh
Bild schir
e en</w>
politi schen</w>
glau ben</w>
Re fer
5 2</w>
L eit
iel en</w>
Da vi
8 ,
Xo Zilla</w>
ow er</w>
min i
Smart ph
l em
verschie den
Wachst um</w>
volu tion</w>
T S
P ok
Fre und
it är
Samm lung</w>
w ün
D rit
5 7</w>
Veranstal tung</w>
G ri
gegrün det</w>
p ap
ä ss
k ö
hol en</w>
Son g
T on
schau en</w>
a k</w>
Inf os</w>
V e
I N</w>
Au gen
H änd
ver lassen</w>
ho ben</w>
Eu ro
Ta gs</w>
Supp ort</w>
Win d
trä gt</w>
Dokum ent
kom fort
Ide e</w>
7 ,
Ver sch
Kro ati
fi ck</w>
ri </w>
sor gt</w>
D S
In fra
5 6</w>
lin ge</w>
in klusive</w>
Val en
gen au
Betrieb s
at uren</w>
D am
S ehr</w>
Metho den</w>
näch ste</w>
il and</w>
Wer k</w>
sei ts</w>
Atmo sphäre</w>
Ur s
erh eb
erhö hen</w>
XXX Dan</w>
dar unter</w>
re ss</w>
A ra
rä ge</w>
ein s</w>
f ro
8 0
gan gs
tin u
D A
flü ge</w>
Lo u
C I
t y</w>
et c.</w>
M as
c ar
inf o</w>
Ko oper
nied r
A kti
fre uen</w>
wei te</w>
Sch ritte</w>
dien st</w>
An lage</w>
Metho de</w>
oll e</w>
v ir
Eng land</w>
Rel ig
N un</w>
aus schließlich</w>
sol o</w>
lo ssen
alis mus</w>
geb nisse</w>
Haf en</w>
ben en</w>
w .</w>
Mor gen</w>
Bu chen</w>
Sy mp
St unde</w>
Öff ent
Benutz er
. Die</w>
g ruppen</w>
B M
Kamer a</w>
ut ter
Be dien
ver lei
gan gen</w>
fe tisch</w>
aus wählen</w>
d og
6 5</w>
n utz
w u
lauf en</w>
Aus wirkungen</w>
fer tigt</w>
k amen</w>
T ier
ik er</w>
Exper ten</w>
ord in
Shemal e
Z ür
Bab y</w>
L as
ander es</w>
b ritann
lö schen</w>
gerä te</w>
. exe</w>
a de
gem ein
genann t</w>
Wer te</w>
Prof .</w>
for dern</w>
G rü
schlu cken</w>
Su ite</w>
den s</w>
Ressourc en</w>
off en
f alt</w>
wel cher</w>
E d
war d</w>
An gel
e ar
ier end</w>
a i</w>
sel bst
Fla ch
aller dings</w>
St ati
el em
Bü ro</w>
P ul
berei tung</w>
Wel che</w>
äus e</w>
ät zen</w>
C D
Qu art
h an
gesch o
Wor ld</w>
T E</w>
ö l</w>
H an
it ar
gestell ten</w>
Doma in</w>
Liefer anten</w>
Er leb
D orf</w>
Blo g</w>
natür lichen</w>
erklär t</w>
Teil nehmer</w>
Frankf urt</w>
An meldung</w>
c tion</w>
ap el</w>
läu ft</w>
ri gen</w>
her z
jun ge</w>
Ber icht</w>
Elem ente</w>
Prü f
d ank</w>
5 1</w>
kar ten</w>
for schung</w>
In tegra
Kamp f</w>
forder ung</w>
ion s
Gesund heits
Ar t
hei m</w>
Kan ada</w>
Fa vor
PD F</w>
Sta ats
t ü
B and</w>
P A
ku ss
d ige</w>
k o</w>
u elle</w>
Kra ft
Ide en</w>
Aus bildung</w>
zah lung</w>
rei s
ter en</w>
Fil ter</w>
zi gen</w>
qu alität</w>
ent weder</w>
Mar ken</w>
beg ri
Ab ent
Ta ges
Telef on
Reser v
k üh
Groß britann
Progra mm
d liche</w>
M ol
Schön heit</w>
T ru
O li
sich erung</w>
ter e</w>
Par am
ver stär
or ien
L ang
Be d</w>
O b</w>
progra mm</w>
ver anstal
po st
Hand el</w>
s ah</w>
UN G</w>
hot el</w>
Er satz
i ssen</w>
To ol</w>
Sp ann
x e</w>
Th om
be züglich</w>
en b
Nutz ungs
f o
Op ti
z imm
H aben</w>
d einer</w>
d .</w>
t aus
Busin ess</w>
Fun ktion
iem lich</w>
komp lex
kontrol l
Vide o
U hren</w>
E-Mail- Adresse</w>
ck er
r elev
be teil
M O
ver w
posi tiv
Fre und</w>
B is</w>
samm lung</w>
sp ort
gel iefer
den -
Mitt el</w>
hand el</w>
stoff en</w>
Hinter grund</w>
sch au</w>
kur ze</w>
sp ort</w>
200 7</w>
ob wohl</w>
Ver brau
sor gen</w>
z is
tig ten</w>
ier tes</w>
min uten</w>
Dre h
5 .</w>
a x
Ü bungen</w>
at t</w>
I D</w>
A lex
kur z</w>
stell te</w>
er o
star ke</w>
spra che</w>
rin gen</w>
Sat ell
ü hren</w>
Lu ft</w>
Pun kte</w>
wo bei</w>
c ast
F ein
die jenigen</w>
Vol k</w>
W ur
R et
äh r</w>
Camping platz</w>
be su
vert rau
yna mi
e ure</w>
er ster</w>
D S</w>
brau cht</w>
ge plan
on om
gew ünsch
ct or
wi schen
isch em</w>
erst klass
la ss</w>
p l
ber n</w>
Lan des</w>
Da zu</w>
- Ver
Um fang</w>
Gesch le
speich ern</w>
ch sel</w>
Valen cia</w>
a ffen</w>
zeichn is</w>
schi cken</w>
i p</w>
w j
bar es</w>
Vol ks
hil fe</w>
5 4</w>
rich tet</w>
ben utzt</w>
P lus</w>
Medi kam
C entr
Schla g
ant ie</w>
ck s
We chsel
ali sten</w>
au ßer</w>
M S</w>
stän digen</w>
ma schinen</w>
der ung</w>
Poli zei
H ör
Werk e</w>
beträ gt</w>
m ot
System s</w>
P resse</w>
n am
ä den</w>
Bel gien</w>
as c
ä ft
R icht
st ig</w>
1 1-
är chen</w>
N utzen</w>
erwar ten</w>
Künst ler
6 ,
brei te</w>
Qual itäts
Erweiter ung</w>
wes ent
us w.</w>
Ob wohl</w>
ie sen</w>
or ts</w>
ver pflich
ie gel
Zahl ungs
sch ützen</w>
stau sch</w>
F lei
gän ge</w>
Fre ude</w>
ge t</w>
Nach hal
B au</w>
Rei s
Zei chn
V ier
rech t
star ten</w>
an geb
ov er</w>
Entwick lungs
Pra xis</w>
Gla s
D eine</w>
be einflu
Mich ael</w>
schwar zer</w>
Ver antwortung</w>
einf achen</w>
1 .0
10 -
Des halb</w>
st yle</w>
bil ität</w>
Man ager</w>
Prof ess
E l</w>
z ess
z iemlich</w>
haf ten</w>
m ol
Öff nen</w>
möglich erweise</w>
bü ro</w>
drin nen</w>
Bei m</w>
registr iert</w>
Log in</w>
di a</w>
or a</w>
man agement</w>
Sal z
Ä r
fig u
Proz esse</w>
dat um</w>
C op
sie ben</w>
Deut schen</w>
lie ß</w>
zahl reichen</w>
Micro soft</w>
N eben
ben utzen</w>
Austr alien</w>
S K
t h</w>
komp ati
schließ end</w>
Grie chen
g ungs
ss el
Dol lar</w>
ent lang</w>
D ah
um fang
Ver gan
ma g
Erwachsen e</w>
erfül len</w>
Bo x</w>
ar k</w>
Fol ge</w>
Bet ten</w>
ar i</w>
mie ten</w>
T en
erneu t</w>
y mp
max im
Niederlan de</w>
Ital ien
Str ategie</w>
Ro ck</w>
Großbritann ien</w>
Bevölk erung</w>
An lagen</w>
regi on
wei st</w>
I P
Kla ss
ver wand
Sozi al
or e
Taus ende</w>
Met all
T iere</w>
Nach dem</w>
M isch
m utz
z ess</w>
Kroati en</w>
5 3</w>
le gt</w>
k oh
Be stand
H ü
Bet ra
D enk
Prakti zier
I C
Plat tform</w>
eh emal
Je der</w>
™ </w>
ag ieren</w>
ma ger
J ob
Liefer ant</w>
m l</w>
D e</w>
sü chtig</w>
M E
w elle</w>
b all</w>
Zu griff</w>
Arbeits blätter</w>
frü her</w>
ausge zeichn
i an
d unk
ok ra
vergan genen</w>
bis her</w>
S ei
F isch
ein heit</w>
B O
Bo u
Archite ktur</w>
o ut</w>
r auch</w>
Kostenlo s</w>
geb enen</w>
zu frie
M all
str and</w>
st ation</w>
Schlüss el
berei tet</w>
sk i</w>
äu ßer
schu he</w>
7 0
Tsch ech
Re par
n ame</w>
s epar
Ant wor
Ma c</w>
entschei den</w>
Al p
F r
groß es</w>
S afe</w>
ähl ten</w>
tra </w>
Fol gen</w>
ap an</w>
er fahr
Kop f
ap ie</w>
at es</w>
Datenschutz erklärung</w>
zun ächst</w>
g ress
st i
re chn
Inform ations
sich tlich</w>
l eben
an spru
Transp ort</w>
Gesch äft</w>
Men sch
G -
Inhal ts
A qu
L au
jem and</w>
V om</w>
er leben</w>
da durch</w>
P O
Sch i
ar y</w>
erhö ht</w>
F lie
T ü
Kil ometer</w>
Sü da
Li v
Wohn ungen</w>
Lux em
Provin z</w>
S O
Ferienwohn ungen</w>
in d
Ein stellungen</w>
Mein ung</w>
g ige</w>
Frei tag</w>
Ch ro
gan g
Milli ar
stu d
ard s</w>
Europ äische</w>
tr eter</w>
on t
F eld</w>
Vor auss
bliothe k</w>
e e</w>
10 0
angen eh
schn ei
m -
freund lich</w>
or ca</w>
App ar
Schrei b
us -
b lich</w>
-S ystem</w>
kör per
S oll
be schreibung</w>
dis ku
ir t</w>
bewer tungen</w>
Geschma ck</w>
Gemein schaft</w>
wir ken</w>
g a</w>
4 7</w>
N iv
n ütz
sol chen</w>
Fern seh
Be weg
be arbeiten</w>
Ma schin
ro ckner</w>
So mmer
9 0
di um</w>
hoh er</w>
at tra
K ä
K abel
r ung</w>
gew icht</w>
s ul
Elekt ron
zu vor</w>
mp fen</w>
Bet t</w>
bew u
haf te</w>
Auf gaben</w>
Per form
stru ktur
Tit ten</w>
be t</w>
ge zeigt</w>
b and</w>
T U
dog gy</w>
p ärchen</w>
n eg
sil ien</w>
is ierung</w>
Um setzung</w>
G B
ol a</w>
F ron
den k
j a
materi al</w>
wa y</w>
is s</w>
P op
ak ter</w>
Ch in
i Phone</w>
haup t</w>
k i</w>
d einen</w>
M ur
Vergan genheit</w>
w w
zu künf
geb il
spra ch
Bü cher</w>
g uter</w>
g rei
ein richtungen</w>
ger äu
tier ten</w>
l ot
j ün
m eter</w>
tro ck
az ität</w>
tig te</w>
D O
Zwei </w>
Sa ison</w>
an bieten</w>
H off
war ten</w>
i tion</w>
ra h
personenbezo genen</w>
Gebur t
wa gen
Flu g</w>
L ü
J apan</w>
kt es</w>
s ex</w>
z ir
lo sen</w>
D ro
G lü
woh ner</w>
über prüfen</w>
st ische</w>
b rü
D ü
install ieren</w>
entsp richt</w>
über tragen</w>
hab t</w>
lau t</w>
S ur
Karr iere</w>
le un
An d
m äch
a pp
kon ver
I S</w>
Co sta</w>
über all</w>
z erstör
ha arig</w>
Berat ung</w>
zei chnen</w>
S ache</w>
H T
mus ste</w>
u ss
Nu mmer</w>
ul ation</w>
hal ts
schlä ge</w>
Applik ation</w>
w anne</w>
W ein</w>
S eg
Bezieh ung</w>
z -
wir kt</w>
un mittel
Zür ich</w>
pf lan
Partei </w>
Tats ache</w>
man chmal</w>
f le
prü ft</w>
Sam stag</w>
prei s
J </w>
Sto ck
M ex
ge kommen</w>
e a</w>
versor gung</w>
Sta mm
at eur</w>
Dien ste</w>
Gele genheit</w>
T rau
Durch schnit
ff er
Dis kuss
t heit</w>
K ann</w>
P eter</w>
d ing</w>
än der</w>
gesch ichte</w>
Kla sse</w>
Grün den</w>
verb rei
Thom as</w>
bar ung</w>
mm ung</w>
le y</w>
k en
wen igen</w>
fol gung</w>
durch schnit
ati k</w>
Ex zell
bl em
tra gung</w>
X C
H igh
An dre
schn elle</w>
Erei g
Aut os</w>
k aum</w>
Griechen land</w>
B ol
- und</w>
Gener ation</w>
Studi o</w>
12 .
an zi
d t</w>
en heit</w>
Auf merk
gel ten</w>
Re d
spezi elle</w>
la n</w>
m t</w>
ni a</w>
isch -
u .
Stu dien
itä t
Navig ation</w>
ff er</w>
Hal b
Pol en</w>
Kun de</w>
ver sucht</w>
er ten</w>
G E
stra ße</w>
port al</w>
T al
anal y
vermei den</w>
K rä
günst ige</w>
Immobil ien</w>
om in
rei ben</w>
G B</w>
b latt</w>
Sonn tag</w>
Sch wimm
di tionen</w>
mit ten</w>
W ich
Jahrhunder ts</w>
hin zugefügt</w>
Z eu
ör ter</w>
Ã </w>
mög liche</w>
Ge or
j ungen</w>
E p
K ern
19 .</w>
mensch lichen</w>
Z y
Krie g</w>
X -
H ier
ik e</w>
D auer</w>
Arbeit sp
te ste</w>
aus ger
C ast
y eur</w>
Ra dio</w>
prof iti
flä chen</w>
R ennen</w>
I I
st ät
politi sche</w>
Al so</w>
zusätz lich</w>
Geb rau
besonder en</w>
iv </w>
Break fast</w>
spro chen</w>
Sch o
prü fung</w>
en ze</w>
z .</w>
Schri ft
ag no
st ik
Re gel
Studi en</w>
zentr ale</w>
La ger
Web </w>
stei gen</w>
g lück
alis ierte</w>
h eben</w>
Fäh igkeit</w>
Konzep t</w>
Rau m
Ein führung</w>
Sch alt
Aus land</w>
mit einander</w>
ber ücksich
beg rü
nation alen</w>
Ge danken</w>
eh mi
er seits</w>
neue sten</w>
entschei den
Di men
Comm un
Dokum ente</w>
erfül lt</w>
Kon ferenz</w>
klär ung</w>
Kon zer
al em</w>
de ck
Se ele</w>
Sch mer
ma g</w>
E mp
ung s</w>
v ent
J ohn</w>
v el
führ enden</w>
Wun sch</w>
k ing</w>
Ä hn
hab er</w>
ungs -</w>
Softwar e-
S ein</w>
2 3
an isch</w>
Tä tigkeit</w>
Co un
viel fäl
20 .</w>
e ster</w>
kra ft</w>
auf genommen</w>
Schlüss el</w>
zu erst</w>
Einf luss</w>
Gesch windigkeit</w>
st ets</w>
Geb ie
digit alen</w>
P fer
Kos me
St ein
Dah er</w>
produ ziert</w>
Lit er
sch ü
Ver w
kon stru
Regi onen</w>
Allgem eine</w>
Davi d</w>
jähr igen</w>
Inst itu
Heraus forderungen</w>
Hei ligen</w>
Inf o</w>
de ckung</w>
Städ ten</w>
f an
Sch iff
Integra tion</w>
Mod ell
Pers ön
be hör
Gra d</w>
w äl
fü hl
unter schei
ver sion</w>
ograf ie</w>
p artner</w>
Christ ian</w>
M ig
ba ck</w>
c am</w>
h u
Förder ung</w>
i a
h and</w>
lei </w>
Al l</w>
ben utz
Brow ser
Amarilla s
Beit räge</w>
Geh eim
französ isch</w>
Pflan zen</w>
Zwe ck</w>
co de</w>
Aufmerk samkeit</w>
ich tung</w>
Indi en</w>
drü cken</w>
präsen tieren</w>
bu ch
o x
mitt els</w>
schön sten</w>
B and
b ran
Er kenn
H äl
eigent lich</w>
te d</w>
mitt elt</w>
Min er
Sil ber</w>
in ien</w>
Ph ar
ber icht</w>
an e</w>
S ün
Geb rauch</w>
se e</w>
H oll
mager süchtig</w>
at oren</w>
or i
spa ñ
u x</w>
N ah
re alität</w>
Z ahn
ü hr</w>
gele gen</w>
Er gän
sta aten</w>
Bade wanne</w>
ch tet</w>
Gal erie</w>
Temper atur</w>
D er
Ne apel</w>
d einem</w>
om a</w>
F ok
For mu
hal tet</w>
Mein ungen</w>
Ein heit</w>
ver z
dar um</w>
ct or</w>
Berei che</w>
Ko sten
ation s</w>
Prof ession
ver se</w>
b ahn</w>
Am ster
sch lagen</w>
le t</w>
Tra dition</w>
star ken</w>
m är
Seit en
euch tung</w>
V illen</w>
Tex t
hol ung</w>
da te</w>
p art
ic o</w>
ter -
wer ten</w>
Mall orca</w>
T rin
Je des</w>
drü ck
forder t</w>
ro t</w>
Französ isch</w>
Flach bild
St ahl
Verbin dungen</w>
woll e</w>
ge tr
schn eller</w>
besch ä
Formu lar</w>
mach te</w>
bo x</w>
G lück
ge halten</w>
P ot
Zu dem</w>
Dire kt
ber au
Favor iten</w>
tinu ier
Aut or</w>
Über nach
et ten
Ges icht</w>
Me dien
Mon tag</w>
An gst</w>
S w
z äh
schrei bt</w>
aktiv ieren</w>
We ge</w>
gewähr leisten</w>
L ok
einzigar tige</w>
ver kauft</w>
anal ys
F lo
st abil
i b
Mu ster</w>
unterschied liche</w>
ta ge
ch ron
m et</w>
vo yeur</w>
Be feh
Sho w</w>
met ho
Di am
Neu es</w>
off en</w>
6 .</w>
Qu ad
di cke</w>
our n
verhin dern</w>
qu al
Kur z
Or te</w>
Bo ot
k in
för dern</w>
K öl
Empf eh
ag o</w>
Hand els
Ba y
H istor
n icht
St rei
de st</w>
d ll</w>
on g
Wer t
f lo
is h
über haupt</w>
p e
ver schw
gen s</w>
ga be
Res iden
Will kommen</w>
To chter</w>
zeichn ungen</w>
Bezieh ungen</w>
indu stri
Get rän
R est</w>
an ges
fäl lt</w>
n et
Or t
atur es</w>
ger u
sich ts
Gew in
Wor te</w>
1 1.
Über setz
zu gän
R ü
Kon stru
Br and
lich em</w>
En ter
Franç ais</w>
Milliar den</w>
200 7-
hal te</w>
mm t</w>
p ort</w>
Schwe den</w>
Ä gyp
Antwor ten</w>
Sin ne</w>
Dis pla
besitz t</w>
Fre unden</w>
rü ck
Auss icht</w>
best ehen</w>
son st</w>
bekann ten</w>
B ö
deta ill
Ges etz</w>
Che ck-
wirtschaft lichen</w>
Ber eit
N ein</w>
p ri
schri ft
P L
O hne</w>
c s</w>
Gewich ts
Medi zin
Wer be
W ohl
Transp ort
kur z
M A</w>
B us</w>
rä ger</w>
de -
An kunft</w>
R em
Sch wier
F ru
C E</w>
Glau ben</w>
garan tiert</w>
Z ut
d ün
Ta p
ei l</w>
Wasch maschine</w>
fül len</w>
Registr ierung</w>
be stellen</w>
Ha art
vi de
W ä
sin n
Hei m
get an</w>
be grenz
ör se</w>
er ium</w>
it s</w>
verl oren</w>
Ru he</w>
Kom mission</w>
gestal ten</w>
n utzt</w>
er hält</w>
W ie
wichtig er</w>
ach tet</w>
K r
Sch ei
dan ach</w>
Kaffe e</w>
ähn lich</w>
Ein gang</w>
fass t</w>
wei ten</w>
p fen</w>
i da
be we
f ach
Organis ationen</w>
S emin
O sten</w>
stän den</w>
D än
Origin al
d ge</w>
tion s</w>
Doppel zimmer</w>
o c
Abent euer</w>
ö pf
on t</w>
i um
rie be</w>
Fer tig
Zer tifik
on es</w>
K no
200 6</w>
Bedürf nisse</w>
An gemeldet</w>
fik ationen</w>
To il
Bra vo
rip </w>
b us</w>
olle ge</w>
größ e</w>
entsprech ende</w>
Gar antie</w>
Zus at
gesell schaften</w>
e wi
unter laden</w>
b ö
Medi a</w>
C E
Zusätz lich</w>
E hr
o st
Edelst ahl</w>
Ma ster
Re gen
ar te</w>
i or</w>
x i</w>
Gem ü
dau ert</w>
Frei heit</w>
J e</w>
freund in</w>
Prä sent
liefer t</w>
schlu ss
Festiv al</w>
19 7
aktiv en</w>
3 00</w>
Kü chen
Z wischen
St utt
f ach</w>
ro hr</w>
erklär en</w>
fin anzi
ent schie
Ko stü
Tre ffen</w>
B em
h len</w>
extre m</w>
Kon fer
D ep
persön liche</w>
stär k
7 .</w>
kon tinuier
Fran c
Re geln</w>
M art
Ch em
Internation ale</w>
hän ger</w>
ä le</w>
gel d</w>
einger ichtet</w>
Veränder ungen</w>
ut h</w>
Händ ler</w>
M w
Gel d
bes itzen</w>
u cht</w>
t enden</w>
F lexi
zi p</w>
XC afe</w>
or igin
Sch mu
Gol f
gelei tet</w>
blau </w>
Aus rüstung</w>
l eh
er es</w>
erk annt</w>
LE D</w>
mal erweise</w>
G rupp
län ger
t elef
Standard s</w>
Frie den</w>
an sehen</w>
A frika</w>
mit glie
H oh
bo den</w>
al tet</w>
min ü
Bravo Tube</w>
Ge gend</w>
R ö
Portug al</w>
tsch ech
zun ehmen</w>
J os
be wegen</w>
Auf bau</w>
S et</w>
Tab elle</w>
S itz</w>
teil ungen</w>
lang fri
kur zen</w>
sa ge</w>
e k</w>
V .</w>
dien st
It ali
Zah len</w>
G U
fäl le</w>
Über setzung</w>
ide ale</w>
ru f</w>
O der</w>
zusätz lichen</w>
E ta
mati s
Ser ver
jähr ige</w>
ink l</w>
rei b
k -
Gr enzen</w>
Pap ier</w>
ter ung</w>
er reich
La ssen</w>
Ern ährung</w>
ho w</w>
rel ig
S E</w>
pa ges
star tet</w>
os oph
Amster dam</w>
gef ähr</w>
R und
eb e</w>
Par la
in vest
wei t
Cas in
B all
Zentr al
tem per
n ieder
v o</w>
Ma c
T isch</w>
Komp et
aus stattung</w>
Ver waltung</w>
Haart rockner</w>
V öl
s ung</w>
I m
Immobilien anzeigen</w>
E ffizi
ne te</w>
Pan or
ord net</w>
Sti mme</w>
Innov ation</w>
Europ as</w>
Bo den
an ger
str ateg
män n
em ent</w>
Ein träge</w>
An spruch</w>
bo ot</w>
en erg
S ich
V il
St ei
wer fen</w>
Häl fte</w>
Verk äufer</w>
wer ken</w>
it en
an er</w>
nö tig</w>
t ür
Fil me</w>
Dien st</w>
Pau l</w>
Char akter</w>
gesch lossen
App s</w>
flu g
N i
ersch einen</w>
Bauern hof</w>
Einkauf s
Je de</w>
C af
Kon figu
spar en</w>
ak u
b rechen</w>
V ER
l ige</w>
G as
20 00</w>
R einigung</w>
or ten</w>
verbess ert</w>
Prä sident</w>
Vor der
T isch
Clo ud</w>
St ahl</w>
Natür lich</w>
Lebens mittel</w>
b all
Auf trag</w>
Z ellen</w>
Su cher
groß ar
I P-
agem ent
wirtschaft liche</w>
Mobil e</w>
iem and</w>
Zeit raum</w>
S icht</w>
Reserv ierung</w>
d ingt</w>
max i
ell en
L ust</w>
S z
Werk zeuge</w>
For tsch
geräu mi
Indi k
P rie
St au
er scheint</w>
F ett</w>
Türk ei</w>
ow -
Ch amp
öffent liche</w>
Kunden service</w>
S n
flu g</w>
T im
Reser vier
Tab let
Bet eil
Ver folgung</w>
grund le
cast ing</w>
a be
G eben</w>
k es</w>
Vereinig te</w>
B lau
höch ste</w>
S S</w>
F ass
B üh
Pa ar</w>
tro tz</w>
ge gn
sta at
log gen</w>
schu len</w>
wach ung</w>
wach sen</w>
a g</w>
Be ste</w>
t ö
vir tu
lie genden</w>
Bla ck</w>
Haupt stadt</w>
st isch</w>
Mikro welle</w>
pun kte</w>
Ver ständ
G ir
a ktive</w>
Mar tin</w>
h ä
Lei ter</w>
a y</w>
ra ten</w>
Obje kte</w>
Stutt gar
sozi ale</w>
Mot or</w>
ent stehen</w>
Stro m</w>
Ge pä
ge eign
geliefer t</w>
Verkehr s
200 5</w>
c omp
samm eln</w>
Alb um</w>
Bett wäsche</w>
N A
län ger</w>
be vorzu
st ati
-S ti
ver gleichen</w>
Gol f</w>
aus reich
R ie
fin anz
Vit am
d ä
A gen
Mag az
S ar
A mb
Prü fung</w>
Zu g</w>
ss el</w>
tran s
Gr and</w>
Beh ör
Ta ges</w>
z te</w>
ra te</w>
m ädchen</w>
G arten
3 8
z we
15 .</w>
sor g
tä tig</w>
dow nlo
Gol d
künst ler
St ation</w>
Sel bst</w>
G ünst
un e</w>
Wissenschaft ler</w>
ex p
sch mer
Versand kosten</w>
Ein richtung</w>
ch rist
R iv
Kon fli
sp or
te -
ag ne</w>
Person al</w>
ok ol
sp ringen</w>
F ig
An pass
S V
Sin d</w>
La den</w>
E B
bess ere</w>
unabhän gig</w>
Stat us</w>
infor mieren</w>
Konta ktieren</w>
Archiv </w>
E g
stechn ik</w>
lös ungen</w>
Be darf</w>
iden tifiz
T H
U kra
An schluss</w>
Ö l
en dung</w>
Ha ar
l o</w>
S ach
P in
um fang</w>
Bo ot</w>
un ge</w>
st ischen</w>
Schn ei
Über blick</w>
L os</w>
Ab schluss</w>
D ein</w>
er er</w>
fil m</w>
rech ts
h .</w>
erst es</w>
ut s</w>
gew and
r or
europ äische</w>
Kat alog</w>
ktiv ität</w>
ni sses</w>
s ur
ätz e</w>
a dem
3 6
iv en</w>
c c
Webs ites</w>
ne y</w>
B ir
verk ehr</w>
Re cht
tic s</w>
moder n
bas iert</w>
Maschin en
Studen ten</w>
gescho ss</w>
hö her</w>
Ver treter</w>
Bil dern</w>
ar ische</w>
Vor teil</w>
eben holz</w>
Studi um</w>
Lehr er</w>
Son g</w>
w ann</w>
g las</w>
angebo t</w>
ta g
Param eter</w>
s eit
n ei
Fir men
Kü ste</w>
Y pages
fig ur
spe kt
S U
R h
sch wei
ex per
st or
ak e</w>
ber eiten</w>
Rezep tion</w>
k ro
Ein en</w>
z ählt</w>
Sol ar
Aktu elle</w>
Ev ents</w>
sich eren</w>
ie -
is iert</w>
außer gewöhn
B in
spañ ol</w>
volu tion
we gs</w>
G itar
fer tig</w>
tik el</w>
Aus mal
A ro
Or gan
ali fiz
Nicht rau
erhö h
R ol
Ster o
Di r</w>
Besch äf
Brei te</w>
spann ung</w>
P C
18 .</w>
b on
H alle</w>
verl ust</w>
ung st
Gesch ir
ic s</w>
mut ti</w>
Lebens mittel
E L</w>
Ein k
T ER
gela ssen</w>
st igen</w>
sp ür
Mer ce
zer tifiz
Miet wagen
Ch ines
d ritten</w>
Sie he</w>
Ph ase</w>
individu ell</w>
L eg
Unterschie d</w>
S .</w>
IT -
Quart al</w>
B A
Nach bar
lü sse</w>
verbin den</w>
Jav asc
zah lt</w>
Camp ing</w>
Y acht
Aus druck</w>
E m
s h</w>
sicher lich</w>
Ges ell
sor tiert</w>
tion al</w>
tradition ellen</w>
in t-
8 .</w>
P R
ähr t</w>
Be dro
St abil
mar kt
int ellig
abhän gig</w>
bein haltet</w>
Fit ness
ver ring
berühm ten</w>
steh enden</w>
on y
an wen
Lie bl
d y
hochwer tige</w>
Un gar
S enden</w>
system e</w>
ma gn
hän d
Train ing</w>
teil weise</w>
so bald</w>
größ ere</w>
Niv eau</w>
Bes itz
Downlo ads</w>
führ ende</w>
w ander
spezi ellen</w>
j ene</w>
che ster</w>
amerik anischen</w>
da cht</w>
Ch ance</w>
e -</w>
st ör
reg ul
am es</w>
internation al</w>
anc en</w>
Kon ver
ab geschlossen</w>
C l
f ein
Progra m
Bo hr
sch lüss
bequ em
Po wer
dig er</w>
c ation</w>
Konta kte</w>
Ver tei
Ar m
i as</w>
betro gen</w>
Ein sch
W esen</w>
Altern ative</w>
K ali
Ver kauf
Flä che</w>
Glü ck</w>
ra n</w>
t el
kü ssen</w>
heu tigen</w>
ti scher</w>
Fahr zeug</w>
e g</w>
kor re
Fe atures</w>
O ri
Ver sicher
Viel falt</w>
Ma x</w>
Indu stri
Mus een</w>
zurück zu
fal sch</w>
O -
we st
Medi zin</w>
ig ten</w>
Geschen k</w>
un gefähr</w>
In fe
schn ell
einfach er</w>
E t
T at</w>
C lass
hau se</w>
Aus führung</w>
mi s
O ne</w>
g nen</w>
Dig it
nied lich</w>
x -
redu ziert</w>
Mon it
s n
se qu
G L
Asi en</w>
Ord ner</w>
T R
ras ieren</w>
~ </w>
ate d</w>
W ähr
reserv ieren</w>
Mo sk
o u
d or
Sp itze</w>
gesch ützt</w>
Cor por
An sicht</w>
allgem einen</w>
gesell schaft
feh l
Wettbewer b</w>
am t</w>
Univers ity</w>
Ver mie
Plan ung</w>
Ph ysi
or ie</w>
Stuttgar t</w>
Fre m
War en</w>
G öt
ö ster
bestä tigt</w>
c ore</w>
- N
L aut
Ro ute</w>
M em
E mail</w>
Geh minuten</w>
3 D</w>
Ju den</w>
sich ere</w>
Her stell
u lar</w>
b ür
günst igsten</w>
wel chen</w>
as en</w>
Don ner
te ment</w>
produ ktion</w>
k ir
H ände</w>
Betriebss ystem</w>
regel mäß
ge -
p al
p at
ri g</w>
stand s
kon zep
S af
Schü ler</w>
Stre et</w>
bet rieb
ein gesch
Schw anz</w>
F inn
In n</w>
Amer ika</w>
Dom in
App le</w>
N ationen</w>
Zer tifiz
N och</w>
li z
Fre e</w>
- -</w>
sp artner</w>
S CH
priv ate</w>
Javasc ript</w>
zun ehm
haup ts
Hom ep
Sin n</w>
Des kt
P S
J ob</w>
A .</w>
g rie
Vari ante</w>
p ov</w>
Fäh igkeiten</w>
vor hand
icht lich</w>
rich t
mar t</w>
Grün de</w>
S ob
af ri
vin tage</w>
r t</w>
t ru
on ien</w>
Mo de</w>
Wei ter</w>
Lauf e</w>
i x</w>
an gem
G I
Speich er
Gener al
stu den
D A</w>
W I
verurs acht</w>
A la
J ourn
Obje kt</w>
leb ens
Immobilien portal</w>
Ar zt</w>
Tool s</w>
relig iö
Tü r</w>
Vis ion</w>
T ar
om en</w>
dig lich</w>
m ein
fa mili
ver bringen</w>
Inter essen</w>
Schu he</w>
W -
le gung</w>
bet ten</w>
Kunst stoff</w>
k e
ver ändert</w>
be handelt</w>
echn et</w>
D ER
ungs an
z ählen</w>
ti ere</w>
glob alen</w>
günst ig</w>
Sto ck</w>
w och</w>
Mö chten</w>
Aut or
H äuser</w>
bewu sst</w>
u. a.</w>
Joh annes</w>
Le der</w>
Heraus forderung</w>
wir st</w>
t ur
Ent decken</w>
des ig
er a</w>
pro blem
mi sch
durch suchen</w>
Cas a</w>
Verständ nis</w>
Fok us</w>
empf ohlen</w>
h t
Blu t</w>
Fahr er</w>
v ens
einzel ne</w>
Kenn wort</w>
F ri
hän gt</w>
Ver antwort
der s</w>
Per spe
ap </w>
so dass</w>
Druck bare</w>
weiter er</w>
bequ em</w>
Sta at</w>
U hr
D ich</w>
lin ken</w>
Z it
gew iesen</w>
Donner stag</w>
10 .</w>
Kur s</w>
à </w>
at em
Ro y
ystem en</w>
Kunst stoff
ol z</w>
W all
krä fte</w>
z lich</w>
innov ative</w>
K ein</w>
fik ation</w>
c al</w>
Lux us</w>
Indik ator</w>
gra mm</w>
erh ielt</w>
ch ter
Do s
Sp a</w>
igh ts</w>
Autom obil
höch sten</w>
Mon t
Pap ier
Her unterladen</w>
Mitt woch</w>
Ab schnitt</w>
N O
Aller dings</w>
digit ale</w>
K lin
o se</w>
bau m</w>
f ir
ma te</w>
pf el</w>
rä der</w>
Pro p
ver standen</w>
kti ert</w>
redu zieren</w>
plat ten</w>
Steu ern</w>
Änder ung</w>
ien s</w>
A ktion</w>
rit erien</w>
9 .</w>
Merk male</w>
gel eg
ro man
er zeugt</w>
Ab teilung</w>
Luxem burg</w>
M B</w>
Market ing</w>
tü cher</w>
em ann</w>
Ereig nisse</w>
fül lt</w>
ge fertigt</w>
berei che</w>
wün schen</w>
au ber
S C
G ü
Sti ftung</w>
Wochen ende</w>
it a</w>
me ch
gesch affen</w>
ah nen</w>
Sa una</w>
6 9</w>
profiti eren</w>
Bür ger
verpflich tet</w>
Ev angel
Gerä ten</w>
geru fen</w>
Infra struktur</w>
An zeigen</w>
h -
sich ern</w>
chines ische</w>
gegen wär
D amen</w>
krä f
Her bst</w>
Tour ismus</w>
Stra ßen</w>
be zeichnet</w>
ov a</w>
ge kauft</w>
äu ß
Auf grund</w>
fäh ig</w>
Durch messer</w>
E C
Schau spiel
Job s</w>
stär ker</w>
K ab
über w
B lü
wei ßen</w>
E I
R enn
Weihnach ten</w>
wor k</w>
erw ähn
Pla n</w>
Ris iko</w>
etz ungen</w>
Köl n</w>
ö ss
IS O</w>
lei der</w>
Vert rieb
P lu
A L</w>
beschäf tigt</w>
er s
Kon s
d y</w>
N ehmen</w>
R um
v illa</w>
sicht bar</w>
For ex</w>
Au stausch</w>
An teil</w>
län e</w>
äm lich</w>
Mar ina</w>
Ra di
politi k</w>
gemeins amen</w>
er t
Pen sionen</w>
weiter es</w>
at te</w>
we chsel</w>
Netz werk
c a
läu b
far be</w>
bau t</w>
For t
ung sin
e z</w>
Br un
chines ischen</w>
Kapit el</w>
end lich</w>
ro l
C ra
. 00</w>
Dän em
Puzz les</w>
Homep age</w>
az ier
16 .</w>
ich tete</w>
i fiz
or gan
er öffnet</w>
ph ys
i ko
ö k
schwe ster</w>
gef allen</w>
´ </w>
bel ie
atem berau
kombin iert</w>
Re du
K abel</w>
3 D-
be zieh
Z iv
h an</w>
§ </w>
Sch loss</w>
vor auss
al a</w>
Verk ehr</w>
L am
hin zu</w>
Be wus
ein zigen</w>
S .
sta un
Art .</w>
den noch</w>
c u
gesch äft</w>
ah len</w>
6 4</w>
E ch
Pfle ge</w>
L E</w>
Aktiv ität</w>
S F
Pat ent
R eit
Klei dung</w>
Proje kten</w>
Log o</w>
se kret
Win d</w>
Auf lösung</w>
º </w>
Er klärung</w>
gew ählt</w>
An y
Fahr zeuge</w>
Geh ir
Sch lu
grie ch
Se kunden</w>
dau er
er leich
gri ffe</w>
si on
au ff
Zei chnen</w>
far b
ron e</w>
is er</w>
ar s</w>
ti ef
Vert rauen</w>
Tur n
v an</w>
h ül
r ig
st eigen
A ir</w>
russ isch</w>
frü her
sch al
jähr lich</w>
H um
Schu len</w>
L ap
Al la
günst igen</w>
A th
Sc ien
kä mpfen</w>
H ann
tik er</w>
lau b</w>
Bo ok
or -
Verpa ckung</w>
opti male</w>
leist et</w>
fe sten</w>
Bewus st
Ste ck
Bot schaft</w>
H z</w>
Pok er</w>
W oh
17 .</w>
Nor den</w>
Iden tit
Baum wolle</w>
m ung</w>
u a</w>
ver treten</w>
Cop yr
gemeins ame</w>
Auf nahme</w>
schle cken</w>
ra s</w>
n ämlich</w>
mm ens
b ieren</w>
th a
Wä sch
D ach
Rep li
Dist ri
organis iert</w>
M AR
Sh ar
Fa ktoren</w>
Europe .com</w>
be darf</w>
F alle</w>
Sch okol
gut es</w>
größ er</w>
Ver schie
Span isch</w>
Früh stü
ch -
L ad
T om
alt ungs
Mo tiv
e k
Ha ar</w>
Modu s</w>
lie b
fol io</w>
DV D</w>
Gef ahr</w>
a der</w>
kon kre
bewer tung</w>
schwier ig</w>
Exzell ent</w>
ro l</w>
Führ ung</w>
O pfer</w>
Ypages Europe.com</w>
w ak
L amp
ul l</w>
De fin
stimm en</w>
d met</w>
tz dem</w>
klass ischen</w>
D ort</w>
C le
Bet re
an ger</w>
schließ t</w>
f s</w>
stimm t</w>
akzep tiert</w>
Re volution</w>
Öffent lichkeit</w>
d okum
C ru
Bildschir m</w>
el -
Stra ßen
ien en</w>
tra t</w>
hin zu
ungs mittel</w>
in spir
ar schlecken</w>
gesprä ch</w>
Sob ald</w>
gri ffen</w>
gem üt
wissen schaften</w>
Vi a</w>
arbei tete</w>
gere cht</w>
Gegen satz</w>
Indi vidu
Schn ell
á </w>
wissenschaft lichen</w>
Nation al</w>
Ver l
fer s</w>
war t</w>
verständ lich</w>
geb rau
-P la
Liz enz
über nehmen</w>
ster s</w>
j ü
Um satz</w>
Koh len
ystem s</w>
Dokum ent</w>
an -
N otwen
gel angen</w>
Schlie ß
komm enden</w>
bur ger</w>
ó n</w>
T onnen</w>
Min ist
bru ch</w>
G lo
wj ob</w>
ss er</w>
Gen ießen</w>
le diglich</w>
Alumin ium</w>
Weihnach ts
Sü den</w>
N er
The ater</w>
lok ale</w>
ein ander
haupts ächlich</w>
M ann
F euer</w>
gen öss
ko s
sy n
Zah lung</w>
En er
In genie
Ab en
ar ab
su ch</w>
F lüss
Wun sch
bil det</w>
mini ster</w>
Ex c
Bu dd
Liefer zeit</w>
Di alog</w>
Se gel
De kor
verschieden er</w>
C ard</w>
gelö scht</w>
lass ung</w>
Flei sch</w>
Vene dig</w>
al og
ä ure</w>
Ziv il
er zi
da mals</w>
ar ia</w>
Eng agement</w>
Li fe</w>
Verpa ck
Br enn
O m
interess iert</w>
Up date</w>
zo g</w>
beglei tet</w>
einzigar tigen</w>
F luss</w>
ven tion</w>
ju gend
t op
her stellen</w>
geh ö
ent ru
K ür
1 1.</w>
Gew alt</w>
di en</w>
o mi
Ara b
Ta g
tä glichen</w>
9 ,00</w>
S na
Nutzungs bedingungen</w>
Grö ßen</w>
so fern</w>
Ber ge</w>
Ver sor
sprü che</w>
n d</w>
er i
sp i
L ern
ö kon
gen ü
g igkeit</w>
Konz ent
f än
eu </w>
Hall o</w>
t ut</w>
ati sche</w>
la gen
di da
char ter</w>
kun de</w>
Mus kel
Lehr e</w>
uni vers
Itali ano</w>
el a</w>
kur r
ff et</w>
St ar</w>
F euer
Schreib tisch</w>
um geben</w>
iel ten</w>
Be st
to wi
antwor ten</w>
P ower</w>
2 1.</w>
Be stä
Dar stellung</w>
Elem ent</w>
F as
Te e</w>
at z</w>
ger s</w>
krank en
Jahr zeh
größ eren</w>
M c
sp unkt</w>
n ungen</w>
r ie</w>
M and
an sicht</w>
13 .</w>
Be glei
G um
ung lau
Misch ung</w>
o .
Beh in
ben e</w>
ün d
Ver trag</w>
histor ische</w>
Sp azier
fas zin
Profess or</w>
str en
B CO</w>
erstklass igen</w>
x t</w>
äußer st</w>
ond s</w>
rän kt</w>
gra d</w>
Te ams</w>
Rob o
kosten frei
den de</w>
s äm
12 .</w>
qual it
gelö st</w>
S un
mer ika</w>
H I
weis ungen</w>
r um</w>
AL I
Gestal tung</w>
Is land</w>
Dru cken</w>
aus o</w>
Dänem ark</w>
M ahl
Schnitt stelle</w>
N etz</w>
e o</w>
Deta il</w>
Än dern</w>
kostenlo sen</w>
B isch
Lei tung</w>
W es
on i
Tick ets</w>
ausge zeichnet</w>
W ild
h lung</w>
Glob al</w>
Investiti onen</w>
bew öl
Anwen dungs
ver gleich
F ro
g um
g la
So cial</w>
Lin ien</w>
verb un
erreich bar</w>
Th a
er to</w>
Ko ordin
opti mal</w>
bra chte</w>
Kli ma</w>
geb äu
W ün
Mw St.</w>
G lei
tig keiten</w>
lu x
ann te</w>
ann er</w>
ell o</w>
T est</w>
Res ort</w>
Origin al</w>
we chs
höher e</w>
Int ellig
M ach
lie b</w>
la ger</w>
p sych
Geburt stag</w>
L as</w>
lie be</w>
to ur
erweiter t</w>
Ausmal bilder</w>
gebil det</w>
I ma
G ut</w>
s w
zugän glich</w>
Hoff nung</w>
N at
Sc re
A N</w>
Hin weise</w>
qu alifiz
y e</w>
Acc ess
Be ach</w>
man uell</w>
betro ff
Sp itz
Fre qu
kur s</w>
en ce</w>
A gent
M ül
. dll</w>
Copyr ight</w>
T ele
Ab onn
Jer us
auf en</w>
euch tigkeit</w>
Aben dessen</w>
C ann
4 00</w>
ver pa
Sex u</w>
her stellung</w>
14 .</w>
la sse</w>
Modu l</w>
st il
3 5
Supp ort
6 8</w>
oll en</w>
nah e
e cke</w>
Tex te</w>
Au </w>
H d</w>
Allgem einen</w>
b es</w>
W en
bewer tet</w>
spezif ische</w>
U p</w>
grü n</w>
ad or</w>
Ver halten</w>
frü hen</w>
anspru chs
Sch lei
Bu dap
Ber echn
Zimm ern</w>
Z iff
posi tion</w>
kli matis
maxi mal</w>
stell ten</w>
k eit
la st
Ukra ine</w>
um welt
Yo u
E dition</w>
Bra silien</w>
P V
har mon
besch leun
sei d</w>
Met all</w>
Berei ts</w>
Ver hältnis</w>
Ägyp ten</w>
Berlin er</w>
Di agno
Er krank
ge tragen</w>
Er schein
ver führt</w>
ograph ie</w>
ol i</w>
fun ktion</w>
Re alität</w>
will kommen</w>
Sp er
st äd
Veröffentlich ung</w>
ant as
be dienen</w>
is ol
Konz ern
viel es</w>
erforder t</w>
an ien</w>
Po st</w>
e Mail</w>
Perform ance</w>
P OR
Erleb nis</w>
Smartph one</w>
n s</w>
ur y</w>
or nia</w>
Aspe kte</w>
defin iert</w>
Fun ktions
Ir land</w>
Dat a</w>
Prot ok
Up ornia</w>
an schließend</w>
sorg fäl
st itu
bur g
St ich
UM </w>
Ber g</w>
Sucher gebnisse</w>
p e</w>
Gra fik
zentr alen</w>
b liche</w>
deut sch
k eh
Ge d
Pak et</w>
lö tz
b itten</w>
kra ft
Be ob
11- 13</w>
hän gen</w>
H ir
Gä sten</w>
Mini bar</w>
ex klus
a kti
at a</w>
den ke</w>
N I
200 4</w>
tür k
erinn ern</w>
Or ten</w>
Ta sche</w>
ausgew ählt</w>
an gs
ti l
Fahr rad</w>
Dien stag</w>
aus län
h le</w>
Char akter
Ver sionen</w>
en or
m s
wer den.
ange passt</w>
Ar mb
V enti
Hoch schule</w>
Wir d</w>
P sych
Effizi enz</w>
integr iert</w>
Te pp
Initi ative</w>
W est</w>
Vor bereitung</w>
C er
be haup
sicher zustellen</w>
f ru
ing ton</w>
ab onn
Ko ch
E spañol</w>
lei den</w>
tra in
d on
genann te</w>
R an
maß nahmen</w>
J apan
Ta ste</w>
lat ina</w>
u ra</w>
Kreu z
IS E</w>
A ma
en -</w>
g ü
händ ler</w>
kla sse</w>
ump e</w>
8 5</w>
entwick elte</w>
Kunden bewertungen</w>
Bon us</w>
ow n</w>
Se cur
k eln</w>
Günst ige</w>
dat eien</w>
wechsel n</w>
Stre cke</w>
du sche</w>
nie mals</w>
Er war
f -
un z
c or
Spe kt
ge ändert</w>
Bei spiele</w>
k und
O L</w>
Be zir
Gem eins
Amer ik
Regi on
garan tieren</w>
5 00
weis ung</w>
v on
wen det</w>
tig ungen</w>
gra tis</w>
automati sche</w>
or ien</w>
Aus flüge</w>
iel d</w>
kl ar
zei gte</w>
2007- 11-13</w>
dem okra
Entwick lungen</w>
Effe kt</w>
ange geben</w>
O t
Ord nung</w>
Doppel bett</w>
rel ativ</w>
ne ten</w>
f anden</w>
brei ten</w>
S ehen</w>
an y</w>
Kooper ation</w>
Geh äuse</w>
Ar sch</w>
Relig ion</w>
ber ühr
Nichtrau cher
Presse mit
f angen</w>
ati schen</w>
de kor
Er öff
är ten</w>
mu sst</w>
e chte</w>
Out lo
30 .</w>
Am ateur</w>
Krank heit</w>
L y
begri ffen</w>
C R
Gesch äft
plan en</w>
Untersuch ung</w>
wur f</w>
kl eb
belieb testen</w>
besch rieben</w>
Publik um</w>
an bie
Qu ellen</w>
Ma ster</w>
n den</w>
maxim ale</w>
lehr er</w>
mod ell</w>
g al
Flachbild -TV</w>
lich erweise</w>
Geschäf te</w>
hät ten</w>
dru ckt</w>
M T
Ähn liche</w>
ko stet</w>
tran spar
kl eines</w>
te st
z iele</w>
Gr enze</w>
ob je
Durch führung</w>
kl ein</w>
b al
be endet</w>
n etz
Teil nahme</w>
Geschäfts bedingungen</w>
führ ungen</w>
mensch liche</w>
tro ffen</w>
off enen</w>
O ran
m as</w>
Publik ationen</w>
mit tag</w>
M E</w>
hö he</w>
Symb ol</w>
Desig ner</w>
it ter</w>
Herr en</w>
B E
t rau
Geschle cht</w>
mitt l
erst mals</w>
Compu ter
ä ter</w>
gew onnen</w>
Any Sex</w>
Mie ten</w>
V an
Liz enz</w>
u st
D ER</w>
fan ta
B is
l ern
Schrei ben</w>
Pra g</w>
9 8</w>
Grund stück</w>
Fir men</w>
2 2
onom ie</w>
verbrei tet</w>
ö ch
zu greifen</w>
.c om
nah aufnahme</w>
Werk zeug</w>
T rop
empf angen</w>
Kostenlo ser</w>
k ehr</w>
be cken</w>
oll t</w>
Aut ob
Dire kt</w>
Me chan
ver folgen</w>
t rin
Alt stadt</w>
Ein stellung</w>
m ün
Pfle ge
Vi v
DL L</w>
ger ing
langs am</w>
absol ut</w>
Öff nungs
Port al</w>
3 7
Flü cht
Gre en</w>
flexi bel</w>
verbin det</w>
ur laub</w>
mei ster</w>
lät zen</w>
b ik
Polizei </w>
le er</w>
l s
ol s</w>
b lichen</w>
n iemand</w>
b um
ein iger</w>
ten .
At tra
he ber
ar ischen</w>
nachhal tige</w>
Hand tücher</w>
Mitarbei tern</w>
u .</w>
Aus stellungen</w>
Fei er
Er st
Webs eiten</w>
voll em</w>
A Shemale
AShemale Tube</w>
zü ge</w>
be ten</w>
K rist
ater s</w>
P l
M utter
lei tungen</w>
f ik</w>
GB P</w>
er ungen</w>
ach te</w>
Ach tung</w>
Hig hl
sei en</w>
sel ber</w>
N ort
Haus es</w>
Stär ke</w>
Mex iko</w>
pp er</w>
we ge</w>
Gi bt</w>
gar ten</w>
Bi bliothek</w>
m ann
Weiter lesen</w>
W ald</w>
Spezi fikationen</w>
ed back</w>
z ierung</w>
W at
Ma in</w>
Sam sung</w>
la dung</w>
ech tigkeit</w>
Z un
Bran che</w>
Da durch</w>
u el</w>
T reiber</w>
ich ter</w>
produ zieren</w>
ru p
I l
Flexi bilität</w>
unter sucht</w>
HER R</w>
ge z
S l
An sprech
Sta at
S ard
wor fen</w>
L IN
R N</w>
n º</w>
Be stell
Hard ware</w>
Red Tube</w>
Kap azität</w>
kehr en</w>
Mo un
Tran sa
gül tig</w>
Eng ine
An hänger</w>
Entschei dungen</w>
serv iert</w>
Klei d</w>
Fi re
zi el</w>
k ol
et abl
L ag
osoph ie</w>
W ik
woh nen</w>
häu fig
siden ten</w>
An n
p ft</w>
her um</w>
Grün dung</w>
kü che</w>
Ger man
ate gien</w>
Ro bert</w>
Gal ax
Su bst
Institu tionen</w>
fül lung</w>
zimm ern</w>
mitt lung</w>
o zi
F le
gef ra
r ische</w>
emp fin
Op en</w>
entschie den</w>
woll ten</w>
io de</w>
il ien</w>
ent en
beru f
er leb
F en
K i
Tex as</w>
höher en</w>
Well ness
A I
D EU
den den</w>
Wei ß</w>
Al li
Schwimm bad</w>
me ssen</w>
entsp rechen</w>
o fen</w>
D ritte</w>
C it
N ied
200 3</w>
Web -
Top -
Au ge</w>
i us</w>
Re d</w>
u ung</w>
zip lin
Ar gent
hin sichtlich</w>
ur s</w>
tä towi
St ore</w>
tri fft</w>
Mensch heit</w>
s em
FR AN
D N
W and</w>
E st
Fest platte</w>
x en</w>
ant es</w>
sch i</w>
Spei cher</w>
ver sicherung</w>
voll ständige</w>
deta ils</w>
minde st</w>
w örter</w>
gri ff
pass iert</w>
wi ss
kti sche</w>
Zusat z
Bel ieb
h am</w>
B ig</w>
Verwen den</w>
et er
individu elle</w>
ruh igen</w>
f lüss
m ore</w>
Den ken</w>
Gef än
kä mpf
posi tive</w>
Ma iland</w>
Aus nahme</w>
K -
beg onnen</w>
Sa int-
K lo
M S
kultur ellen</w>
f ett</w>
zu mindest</w>
d s
b eln</w>
stü cke</w>
Ac co
C N
Dokument ation</w>
1 50</w>
individu ellen</w>
ir ur
f ron
Aus gang
ir es</w>
on ie</w>
Sitz ung</w>
t et
Satell iten
N ik
da chte</w>
Frei en</w>
gebie te</w>
geb en
Materi al
Wor ten</w>
Ein satz
form at</w>
Auf sichts
i da</w>
mus ik
gen heiten</w>
offizi ellen</w>
Al ter
ge gangen</w>
25 .</w>
minü tige</w>
Bü ro
n y</w>
c y</w>
st ür
zu gleich</w>
aus drück
E miss
Spiel zeug</w>
vis ion</w>
lä ser</w>
v ille</w>
F ür
ier tem</w>
ot t
am b
keh len
stat tet</w>
War tung</w>
hal ter</w>
Behör den</w>
ru del
Qual ität
J ung
p fer
gewöhn lich</w>
zufrie den</w>
T enn
vor stellungs
K ie
Eigent um</w>
bri tisch</w>
Jerus alem</w>
bin dung</w>
Verw altungs
Steu erung</w>
N ic
h ielt</w>
te s
Host el</w>
N OR
Budap est</w>
An satz</w>
D C</w>
C ur
Ris iken</w>
eg al</w>
liefer ung</w>
su b
I B
Gesam t</w>
Flor enz</w>
an ia</w>
b re
rech nen</w>
m ar</w>
be klei
nor malerweise</w>
Be eg</w>
verk nü
r es</w>
Ver hand
Al koh
ver tret
Dig ital</w>
ent steht</w>
Kon tin
downlo ad</w>
A post
steu erung</w>
zeu gung</w>
kehlen fick</w>
französ ischen</w>
Exp lor
form ation</w>
bewer ten</w>
Hig h</w>
ver brauch</w>
per i
tätowi ert</w>
den s
E th
el en</w>
Nor di
P ort</w>
genau e</w>
jugend lich</w>
Amer ic
H üt
sel ten</w>
dar gestellt</w>
da n</w>
Land wirtschaft</w>
Gesch ichten</w>
8 8</w>
Su per</w>
6 6</w>
S t</w>
Symp t
et h
L or
Off en
bestimm en</w>
We sten</w>
spezif ischen</w>
Vi rus</w>
Funktion alität</w>
us e
unbe dingt</w>
wichtig ste</w>
sch ein</w>
wei ch
Ch a
Par ken</w>
At lan
Verl ust</w>
Obje kt
r ich</w>
möglich st</w>
tie f</w>
In dex</w>
gesprä che</w>
erk unden</w>
H ein
T S</w>
ruh ig</w>
bo ur
S mart</w>
schnei den</w>
Sch rau
Er fahren</w>
Er hö
haus frau</w>
t op</w>
trä gen</w>
c lu
Gew inn
O ze
I M
Ungar n</w>
ober en</w>
ab len</w>
wes entlich</w>
ver arbeitung</w>
P RO
itz ler</w>
bekann te</w>
ti er</w>
ph ysi
gen auso</w>
di t</w>
o ff</w>
H äu
P O</w>
Frie d
s .com</w>
Ins gesamt</w>
Er inn
Nach frage</w>
h ep
Er ste</w>
Forsch er</w>
best än
Ex ten
h ard</w>
mitt ler
1, 5</w>
Miss ion</w>
persön lich</w>
at -
Mei ster</w>
ig ste</w>
den heit</w>
ti sches</w>
I II</w>
öster reich
US B</w>
An reise</w>
c ing</w>
grei f
Gepä ck
Bru der</w>
R at</w>
C .</w>
Ali c
bum sen</w>
D al
Ar z
d ritte</w>
vor her</w>
Rum än
B ik
H en
s k</w>
interess ante</w>
ar ch</w>
sch alten</w>
S ö
E li
es -
k n
Zut aten</w>
der te</w>
Vir tu
a .
u ellen</w>
Ab bildung</w>
Ver tret
p ak
Ol ymp
Mark en
Vor sitz
no mmen</w>
beob achten</w>
scha fft</w>
ist an</w>
st ö
allgem eine</w>
Song text</w>
c es</w>
T at
Schlie ßen</w>
s ein
kehr t</w>
ss ystem</w>
rit t
sp ei
Ver letz
gef angen</w>
kon figur
for d</w>
freund liche</w>
schwar zen</w>
Frühstü cks
beein druck
la mp
Liter atur</w>
Ver wand
elektr ische</w>
FA Q</w>
betra chten</w>
ber gen</w>
er ischen</w>
A f
W ann</w>
An sichten</w>
äus ern</w>
um zu
verfüg baren</w>
registr ieren</w>
al ter
Gemü se</w>
beschä digt</w>
Ju li
Welt krie
Blu e</w>
einig t</w>
wie sen</w>
stei gt</w>
v s</w>
C y
th em
D AN
Port o</w>
Ger icht</w>
Or ch
Mon tage</w>
l etzt</w>
g ingen</w>
Feh ler
Nachhal tigkeit</w>
Yacht charter</w>
Besonder s</w>
beteil igt</w>
verk ehr
Europ e</w>
3 00
Meer es
é s</w>
wissenschaft liche</w>
er le
geb au
otenzi al</w>
is co</w>
n ör
Flug haf
ar tikel</w>
b ele
Ar me
ge prä
besteh enden</w>
scha ff
T el
U -B
× </w>
Schwer punkt</w>
T A
Pla y
Ferien häuser</w>
ren ov
An mel
Produ ktion
it h
6 1</w>
Vi elleicht</w>
D unk
Z w
bo ard</w>
Pu erto</w>
förder t</w>
Wirt schaft
Entwick ler</w>
AT I
automati s
re ssen</w>
lei ter</w>
Geb urt</w>
Notwen digkeit</w>
R am
y l</w>
prakti sch</w>
Dü ssel
pol n
ep </w>
aut om
rudel bumsen</w>
Hoch zeit</w>
Rah men
ent deckt</w>
C hat</w>
N an
Fot o
B ahn
betra chtet</w>
10 00</w>
Hö ch
gen er</w>
Auss ehen</w>
Z ell
p ul
feh lt</w>
studen tin</w>
Se villa</w>
re volution
gi a</w>
Bei de</w>
Kon g
k napp
wirk ung</w>
d isch</w>
drü ckt</w>
St ein</w>
komp et
Ver trags
Be griff</w>
gn ü
entwick elten</w>
gesch windigkeit</w>
sch äd
Dre s
stu hl</w>
Form el</w>
il d</w>
Z ü
T el</w>
I sol
Gr ill</w>
ma ßen</w>
ens wert</w>
T hr
A dap
Stru kturen</w>
ema schine</w>
sch ätzen</w>
k ette</w>
grü nen</w>
Aut oren</w>
M ü
Bestand teil</w>
Commun ity</w>
k ein
Be arbeitung</w>
b un
ri en</w>
h art</w>
bar t</w>
m ulti
Christ i</w>
ri fft</w>
lei ten</w>
z esse</w>
c e-
W eg
E F
er wer
h m</w>
z ö
Host els</w>
näch stes</w>
kranken schwester</w>
Lie b
Gegen wart</w>
ange gebenen</w>
mobil e</w>
äl ter</w>
sh ops</w>
Bereit stellung</w>
Instru ment</w>
al tern
st ein
is a</w>
ausge führt</w>
Progra mmen</w>
Alic ante</w>
h ungen</w>
entru ms</w>
Wär me
do ppel
.0 2.
sol cher</w>
organis ieren</w>
zu letzt</w>
ti es</w>
komp on
Design s</w>
te mp
ent -
Schi ff</w>
Eben en</w>
Beru fs
E mo
aff ung</w>
ö st
ip s</w>
er ing</w>
In tegr
wi scht</w>
ver arbeitet</w>
Inform ation
ta gs</w>
erk ennung</w>
gesch lagen</w>
Con t
Ma k
komplet te</w>
glau be</w>
an i</w>
E C</w>
S achen</w>
Über ein
G na
e di
b len</w>
är in</w>
S iz
Con tain
vor bereitet</w>
Praktizier enden</w>
sch mutz
ver ändern</w>
hä fen</w>
P lätze</w>
Bestimm ungen</w>
infor miert</w>
Ver such</w>
b lieb</w>
Ad minist
Au ff
w ahr</w>
Liv e-
K le
flä chen
ck el</w>
Partei en</w>
c ollege</w>
kre u
ag iert</w>
Ein trag</w>
medizin ische</w>
Kl eine</w>
Ver n
för mi
Bes t</w>
Schmu ck</w>
hol t</w>
Roy al</w>
w e</w>
setz te</w>
ent standen</w>
dire kte</w>
g öt
aktu ell</w>
län ge</w>
wer tung</w>
K O
b or
Vor jahr</w>
Kolle gen</w>
Ver pflich
Besu chen</w>
über zeugt</w>
ot t</w>
Ja ck
Gesch enk
ge zogen</w>
stär ken</w>
-S tern
H -
re par
ehemal igen</w>
Con trol
Zusa mmens
ag a</w>
Rei ch</w>
gi o</w>
3 1.</w>
Süda frika</w>
gesch ehen</w>
wieder um</w>
mier te</w>
su chte</w>
y mb
Um gang</w>
k itzler</w>
bestä tigen</w>
HER RN</w>
DEU TS
d ol
h n</w>
Rab att</w>
En gel</w>
Out do
IS H</w>
A ward</w>
geplan t</w>
id -
Co ck
Zu hause</w>
wer det</w>
ü cke</w>
lich sten</w>
r ing</w>
Alex ander</w>
ar n
U T
re den</w>
Prie ster</w>
desig n</w>
ü bri
Au st
p lötz
be ziehen</w>
AN O</w>
d j
ni ppel</w>
bet rifft</w>
St ör
Ak k
ti c</w>
ul pt
Rechn ung</w>
Um geb
b y
C S
Präsent ation</w>
tro l</w>
ck ten</w>
Temper atur
G ast</w>
Ban ken</w>
E i
Kal ender</w>
Krank heiten</w>
Sch äden</w>
Ber ichte</w>
Che mi
Tran spar
H at</w>
ent lichen</w>
prä sent
Tro tz</w>
p op
pp </w>
komm erzi
n de</w>
Fin de</w>
Gesprä ch</w>
tig keits
Qu ar
Vereinig tes</w>
d in
wei le</w>
ati n</w>
Veranstal tungs
Besitz er</w>
zeit genöss
Fahr rad
hr e</w>
Sch on</w>
vorstellungs gespräch</w>
tradition elle</w>
at o</w>
Auf zug</w>
Centr e</w>
Internation alen</w>
arch ite
T ari
Öffnungs zeiten</w>
b ach</w>
D ynami
Mün zen</w>
G E</w>
h oll
fu hr</w>
Ch i
T on</w>
Hand y</w>
ativ er</w>
gesa mm
B lätter</w>
Ein druck</w>
Lin ux</w>
Ant on
gesch ieht</w>
hö schen</w>
Sat z</w>
L es</w>
profession ellen</w>
LE D-
Zei ge</w>
ung .
Au di</w>
h i</w>
ausgestat tete</w>
Eg al</w>
Lei der</w>
verschw in
Z äh
dire kten</w>
be auf
yp en</w>
ta sche</w>
c ol
F isch</w>
Ver zeichnis</w>
ol itik</w>
we stlichen</w>
er setzt</w>
K W</w>
Enter p
G R
Fel der</w>
best and</w>
U K</w>
durch zu
Allgem ein</w>
o ten</w>
m om
Ker ami
Schau en</w>
Chr isten</w>
lich t
Wei l</w>
Bu d
be ge
Gem äl
A V
au st
W ort
S ab
9 1</w>
is ieren</w>
Konfer enz
Wei ß
et o
Körper s</w>
Sto ff</w>
kl us</w>
me chan
m as
ho t</w>
leich ter</w>
rei cher</w>
al ist
6 00</w>
prei se</w>
sch einen</w>
C i
Kat al
Plan eten</w>
Le vel</w>
dar aus</w>
rat ie</w>
al ischen</w>
M ah
R einig
Über prüfung</w>
Al te</w>
be sucht</w>
nah me
en ge</w>
bet rieb</w>
Tu ber</w>
mier ten</w>
gesch äf
enti erung</w>
län der</w>
C olle
Z ul
b ä
wunder schönen</w>
Unter haltung</w>
Pla y</w>
So fa</w>
klei d</w>
Mat hem
Ad ri
w ächst</w>
d ent
A ktionen</w>
AG B</w>
BM W</w>
Stell en
Co .</w>
kommun ik
europ a</w>
he dr
Gr enz
so weit</w>
r on</w>
Prop he
Befeh l</w>
r .
S T</w>
Fak ten</w>
re agieren</w>
Partner schaft</w>
nahe zu</w>
Besch wer
B lan
Kir chen</w>
wei ß
Ber n
4 8
An im
Veröffentlich t</w>
Sti mmung</w>
a .com</w>
sei tig</w>
notwen digen</w>
A fri
fre m
lux ur
Über wachung</w>
tran spor
bew us
Pri or
be kommt</w>
Inter view</w>
tz eit</w>
Mär kte</w>
sch li
L A</w>
ver sammlung</w>
ich teten</w>
S he
Empf änger</w>
Window s-
klass isch</w>
tex te</w>
£ </w>
Bou ti
stei gern</w>
glück lich</w>
umb ien</w>
gef äl
hand eln</w>
Dr Tuber</w>
Rä ume</w>
Ex ist
Dat ens
. In</w>
a y
il a</w>
La de
Drei </w>
off ene</w>
tschech isch</w>
zu gang</w>
Displa y</w>
kon ferenz</w>
da y</w>
p rin
er rei
LAN -
Gleich zeitig</w>
W art
Is la
rei n</w>
So u
wei chen</w>
er staun
9 2</w>
ausgew ählten</w>
4 7
Meer blick</w>
R ein
verb rau
gestell te</w>
g ä
erfol gen</w>
Ke y
mess ungen</w>
rä umen</w>
Bür ger</w>
Ben ach
Geträn ke</w>
Pa ir</w>
Prä zis
T -Sh
angeneh m</w>
Str ände</w>
füh lt</w>
aktu alisiert</w>
Fla sche</w>
off ens
M un
H und</w>
verwen deten</w>
N am
ver lie
ach tung</w>
Cann ab
Konstru ktion</w>
fel der</w>
sch ar
st rip</w>
I -
disku tieren</w>
em o
Bul gar
Nach t
Kolle ktion</w>
S äu
ba de
Konfigu ration</w>
Tour isten</w>
O K</w>
magn e
ung er</w>
schmutz ige</w>
Lei den
an hand</w>
l -
ge d</w>
Ev ent</w>
J ag
DEUTS CH</w>
e chten</w>
Access o
-St un
i ck</w>
icher heit</w>
et -
6 7</w>
G au
P on
H yp
Hau t
rei </w>
Tr ends</w>
steh ung</w>
erwähn t</w>
men ten</w>
Kon tra
ver gleich</w>
Haup ts
Stor n
Urs achen</w>
bet rieben</w>
ge spielt</w>
Brü ssel</w>
gel esen</w>
fahr er</w>
ver änder
italien ischen</w>
Kam in</w>
om s</w>
dest o</w>
g ei
ro ten</w>
uni form</w>
Mittel me
D R
adem ie</w>
g or
F ö
b o</w>
ach sen</w>
temper atur</w>
Lab or
in er</w>
Nutz ern</w>
Moder ne</w>
gewünsch ten</w>
Si xt</w>
S tern
bei tragen</w>
C A</w>
B ron
unbe grenz
J ac
Ur sp
V O</w>
Ü </w>
IT ALI
Poly ester</w>
sch rieb</w>
nation ale</w>
0 8
og a</w>
Ger ichte</w>
be u
Per fe
arbei tungs
Sti mmen</w>
erinn ert</w>
vor gestellt</w>
Pen sion</w>
sta mmt</w>
Vor stand</w>
fla sh
näh er</w>
Gra tis</w>
b ol
Erd geschoss</w>
w ahl
Finn land</w>
st il</w>
zentr en</w>
Bel ast
kon zip
ne cht
Mon ster</w>
erst re
neu n</w>
Ma ße</w>
e ck
konver tieren</w>
in begriffen</w>
Ener gien</w>
gesch ickt</w>
z ellen</w>
1 1
Pro mo
P ic
S ä
geb unden</w>
k amp
Part y</w>
St ef
Programm s</w>
be zahlen</w>
R eiten</w>
Tie fe</w>
ter in</w>
profession elle</w>
ul a</w>
L ot
A S</w>
Brie f
Schokol ade</w>
bewe gt</w>
el ung</w>
über nimmt</w>
glob ale</w>
Sing les</w>
es ien</w>
EN GL
Tu be
Viel en</w>
ungss ystem</w>
mer ken</w>
Ein heiten</w>
Pi x
ho use</w>
Temper aturen</w>
Verbrau cher</w>
ump en</w>
Chro me</w>
Automati s
er wischt</w>
unter wegs</w>
Zu verläss
Exp ress</w>
ell o
D au
S it
Z one</w>
D s</w>
E s
Übernach tung</w>
dat en
steh ende</w>
geh ei
An kunfts
Bar s</w>
H ab
C P
au ßen</w>
wo durch</w>
Schwier igkeiten</w>
I P</w>
atemberau b
an passen</w>
Aktu elles</w>
kun den
ein st
B ill
u ch
gen des</w>
Salz burg</w>
U -
az z
F ans</w>
Beschwer de
K ün
web cam</w>
Prof il
. Das</w>
n ennen</w>
gewähr leistet</w>
osi tion</w>
Me ssen</w>
pp ing</w>
C r
Quad rat
Internet -
Z in
lin e
ENGL ISH</w>
ari um</w>
mol lig</w>
bü cher</w>
Frei zeit</w>
Mö bel</w>
an ab
Ass ist
at ten</w>
F ett
Phil osophie</w>
Hinter grund
der ungen</w>
geh ol
kosten frei</w>
Mi r</w>
mus sten</w>
rei bt</w>
au to</w>
er geben</w>
G l
Ersatz teile</w>
br ille</w>
hervorra gende</w>
Konz ert</w>
amerik anische</w>
hil frei
g rau</w>
Mar k</w>
interess ant</w>
k r
E dit
Ein er</w>
Sa int</w>
Te am
Wh ite</w>
ver br
S li
200 2</w>
sen der</w>
SK A</w>
Wirk lichkeit</w>
Kur se</w>
T ö
War e</w>
Min ute</w>
Per u</w>
bis her
be dien
Sp ül
ho do
Er stellung</w>
erfolg reiche</w>
P r
-Stern e-
Tour is
Min dest
Vorauss etzungen</w>
ra sse</w>
er zeugen</w>
wel chem</w>
ier s</w>
Test s</w>
unterschei den</w>
Dan ach</w>
wit h</w>
0 ,00</w>
verbin dung</w>
fiz iert</w>
B rünette</w>
italien isch</w>
sprech er</w>
Düssel dorf</w>
dan k
H änden</w>
sau ber
gef örder
b ahnhof</w>
p lus</w>
Fak ult
na v
w .
2 2.</w>
F ähr
l ing
K rise</w>
An weisungen</w>
m eines</w>
zuverläss ige</w>
lin gen</w>
Brü der</w>
Ent fernen</w>
spra chen</w>
teil nehmen</w>
Bä ume</w>
Bedien ung</w>
gebäu de</w>
al u
Diskuss ion</w>
Aus ge
P T
ster ben</w>
kontrol le</w>
Part nern</w>
Eigent ü
B li
hochwer tigen</w>
Zwei fel</w>
d om</w>
er vice</w>
Italien isch</w>
A T</w>
nor malen</w>
un der</w>
4 5
erz ählt</w>
nach weis
h ard
H ä
b it
Letz te</w>
Premi um</w>
-P lat
dien ste</w>
Vor aus</w>
Met ern</w>
analy se</w>
tau chen</w>
bo t</w>
z ungen</w>
entsp annen</w>
Rei ch
schn ellen</w>
Bü ros</w>
irgend welche</w>
d omin
gan z
Rea ktion</w>
Nor da
ari o</w>
Air port</w>
Anwen der</w>
- Team</w>
ir l
beeinflu ssen</w>
vor bei</w>
ursprün glichen</w>
D I</w>
russ ischen</w>
auf bewahr
gew al
Di pl
geschn itten</w>
Gener ator</w>
sätz lich</w>
Komp ati
L ar
9 6</w>
Americ an</w>
Um satz
28 .</w>
lei chte</w>
ür e</w>
necht schaft</w>
st ag
Modu le</w>
durch ge
is ation</w>
Kosme tik
Erweiter te</w>
sei tigen</w>
W ord
Mehr heit</w>
betre ff
an da</w>
gestal tet</w>
mar ken</w>
reich es</w>
ter nen</w>
N ar
Fernseh er</w>
ent al</w>
N ap
Ger echtigkeit</w>
Anpass ung</w>
ben s</w>
Ch ancen</w>
6 2</w>
mus eum</w>
Projekt s</w>
ti ck
an en</w>
f ehlen</w>
er wor
erlau ben</w>
ctor y</w>
wahr e</w>
aus führ
ein deu
Büh ne</w>
G as</w>
Panor am
begrü ßt</w>
Er fin
un er
ausreich end</w>
G O</w>
Be gegn
Leu cht
al ische</w>
war e-
Zimmer ausstattung</w>
Identit ät</w>
einger ah
Ge bet</w>
Alla h</w>
ro tha
26 .</w>
· </w>
s elt
wär ts</w>
sol ch</w>
Pat ri
24 -Stun
W ör
be schreiben</w>
ber ichtet</w>
g .</w>
al p
K G</w>
9 7
au th
ver halten</w>
b rech
Sp ir
ö gel</w>
Technolog ie
Gemein den</w>
empf eh
M ul
ti ment</w>
O x
Check- in</w>
M .</w>
ge arbeitet</w>
Drit t
Brü cke</w>
Führ er</w>
Shemale Z</w>
Ama z
rei he</w>
g ner</w>
Park plätze</w>
be fest
c enter</w>
GU ES</w>
Geschir r
Fahr zeug
unter en</w>
2. 0</w>
Kol umbien</w>
ver d
Scho ol</w>
Instru mente</w>
ver größ
mil itär
Vie w</w>
Temp el</w>
Imm un
so ft
dida ktische</w>
sk la
A ktion
wei ße</w>
Mus eu
ak ul
si ons
Ergän zung</w>
Tür en</w>
DER LAN
Mei ster
k y</w>
Ur heber
ES PA
Dan iel</w>
at t
An leitung</w>
Roll en</w>
kultur elle</w>
Innov ationen</w>
ant el</w>
hei ßen</w>
mor gen</w>
G all
POR TU
Ver gleichen</w>
Sp iegel</w>
Con ne
a c</w>
kon z
G ute</w>
sol chem</w>
Über tragung</w>
gen der</w>
do pp
E X
schlüss el</w>
FRAN Ç
Busin ess
24 .</w>
S qu
bas ierend</w>
W illen</w>
ITALI ANO</w>
positiv </w>
ESPA Ñ
ver folgt</w>
FRANÇ A
Frei zeit
V all
Person al
E ich
Grupp en
um -
ol er
DAN SK</w>
form ular</w>
t olle</w>
P ad</w>
s ign
An wesen</w>
Ent spannung</w>
Führ ungs
Man agement
ra ft</w>
K B</w>
Ba y</w>
str ö
Slo wak
t formen</w>
NE DERLAN
F rau
ten s</w>
dar stellen</w>
Str and
ar tige</w>
Zertifik at</w>
ESPAÑ OL</w>
Sp rech
Verein barung</w>
NEDERLAN DS</w>
Nahr ungs
SV EN
gr ö
umfass ende</w>
Online- Übungen</w>
ex uell</w>
30 -
st ern
be ur
P ier
gan gs</w>
effizi ent</w>
FRANÇA ISE</w>
An gele
NOR SK</w>
SVEN SKA</w>
ur is
PORTU GUES</w>
E- mail</w>
gesch altet</w>
Mobil ität</w>
antwor tet</w>
ü ste</w>
2 3.</w>
Well ness</w>
belie bt</w>
Kl ar
ion ieren</w>
angem ess
K riterien</w>
or gie</w>
Ta xi</w>
detaill ierte</w>
Jos ep
spir itu
Um feld</w>
Urs ache</w>
fäl len</w>
häufig sten</w>
d yna
st on</w>
u li
berücksich tigt</w>
An geb
Be kann
mo tiv
Auf trags
konzentr ieren</w>
Gen ehmi
Lin k
L ast</w>
E tik
Veränder ung</w>
ein gestellt</w>
P y
G N
Aufent hal
Gam es</w>
Opti mierung</w>
fühl te</w>
D ör
20 -
Er wer
G EN</w>
alt a</w>
R ac
ursprün glich</w>
n .
8 00</w>
F är
Hand el
pers onen</w>
L ine</w>
ru g</w>
Class ic</w>
m g</w>
k reis</w>
brei tung</w>
mus ik</w>
Jes u</w>
rie benen</w>
verge ss
los igkeit</w>
P E</w>
tro cken</w>
bel ast
Work shops</w>
m esse</w>
Con s
ge troffen</w>
trä ch
f ährt</w>
vor stellen</w>
jün g
fül l
einger ollt</w>
Zu cker</w>
Un it
Be stellungen</w>
schla f
te ure</w>
un da
V eg
Casin os</w>
Akti en</w>
E cke</w>
schön es</w>
Har mon
schw anger</w>
Tie f
0. 00</w>
A str
k anischen</w>
Oli ven
sk a</w>
vi </w>
ho ffen</w>
ver en</w>
Vor schriften</w>
Fran ce</w>
Richt linien</w>
O ffizi
Ma ß</w>
sp ü
hunder t</w>
Krä fte</w>
char akter
Bas is
bu ffet</w>
c -
Pal ette</w>
holl änd
Wer kt
Gen au
erz ielen</w>
N ür
Ko chen</w>
sorgfäl tig</w>
H R
Alumin ium
ti f
Sch a
-- --
Magaz in</w>
Di agra
fot ze</w>
kauf en.
Termin e</w>
arbei t
Wun der</w>
rie f</w>
aus gesetzt</w>
un ge
Tha iland</w>
Mass e</w>
Mil itär
Kaffe emaschine</w>
ktiv er</w>
W LAN-
L U
Vier tel</w>
Feh l
Rom an
erz ählen</w>
tats äch
anzu bieten</w>
gewi dmet</w>
Kontrol l
o we
Versor gung</w>
ergän zt</w>
h alle</w>
medizin ischen</w>
27 .</w>
in stru
Outlo ok</w>
Versand rohr</w>
B ell
p en</w>
Batter ie</w>
a .net</w>
s itzen</w>
Rumän ien</w>
pass ende</w>
Be vor</w>
nicht -
sicher heit</w>
ätz ung</w>
Ber gen</w>
Nahr ung</w>
12 -
ränk ungen</w>
her apie</w>
E ro
Spazier gang</w>
der -
G ame</w>
J ün
ch tern</w>
a kt</w>
Aus stellungs
f liegen</w>
a ce</w>
pp en
fei ern</w>
wär en</w>
Sch ö
c i</w>
exist iert</w>
min im
Einf ach</w>
e se</w>
erfolg reichen</w>
funktion ieren</w>
ob e</w>
Bewusst sein</w>
G P
Empfeh lungen</w>
Je doch</w>
Reservier ungen</w>
ol o</w>
ber at
ungspro zess</w>
Krie gs
sekret ärin</w>
taus end</w>
ran g
W E
gew ählte</w>
Inhalts stoffe</w>
Univers itäten</w>
d wi
Schat ten</w>
qu elle</w>
J an</w>
B A</w>
S av
nah m
Medikam ente</w>
Vor stellung</w>
ad -
ungs ort</w>
Au di
P E
Prin zip</w>
Lou is</w>
ann ten</w>
Prä sen
rie si
auf merk
ie s
L L
ge te
C ab
vor behalten</w>
Bel euchtung</w>
äst in
Ein loggen</w>
metho den</w>
Arme e</w>
er ungs
Back ofen</w>
Stabil ität</w>
kun st</w>
us ion</w>
W ahl
Vert rieb</w>
Rück kehr</w>
HD Sex</w>
Ansprech partner</w>
c on</w>
an genommen</w>
Gna de</w>
Servic e
M r
ok ratie</w>
Ch am
ent es</w>
ad o</w>
Hann over</w>
Andre as</w>
6 3</w>
trin ken</w>
woh l
Fran k</w>
sau ber</w>
auf treten</w>
ein geführt</w>
ver waltung</w>
luxur iö
Leiden schaft</w>
op -
ex zell
dat ei</w>
Anti -
ver teilt</w>
Lan des
f lei
is on
k ter</w>
flash en</w>
auf gebaut</w>
fün f
Dres den</w>
part y</w>
Blo wjob</w>
Sens oren</w>
Ge werk
Wär me</w>
Mittel punkt</w>
durch führen</w>
kat hol
ex ternen</w>
i den</w>
be merk
ex tra</w>
be mü
Europe an</w>
kü ste</w>
Erei gnis</w>
be dro
Kat hedr
D est
M und</w>
Sol u
auss ehen</w>
b isch</w>
star b</w>
H under
sch te</w>
stand ard
ver y</w>
ass t</w>
her zustellen</w>
F R</w>
al istischen</w>
rotha arig</w>
Wur z
kön n
Bes itz</w>
wahr en</w>
Beweg ungen</w>
kenn t</w>
we et</w>
kop f</w>
Fre e
er setzen</w>
Reg ul
Bran chen</w>
Lei p
ch ro
Me ga
m ul
O s
minist erium</w>
B ES
install ierten</w>
Mitglie dern</w>
ex t</w>
c om
ti li
k nechtschaft</w>
Zeit ungen</w>
Ver teilung</w>
DI N</w>
ta gs
ur m</w>
Bü gel
wi mmen</w>
amer a</w>
eh emann</w>
v enti
R as
ett el</w>
Mal ware</w>
ber aten</w>
Par a
zi </w>
st ab
kompati bel</w>
aus wahl</w>
D ri
verurs achen</w>
vorher igen</w>
w en</w>
Wh irl
stro m</w>
Z e
Zu stimmung</w>
R and</w>
Max im
zwei f
Näch te</w>
ber s</w>
fin de</w>
B ie
Kop ie</w>
klass ische</w>
ent a
Kor re
So und
k einer</w>
W ährung</w>
7 7
B R
L ein
F euchtigkeit</w>
R unde</w>
ast rop
T raum</w>
K arten
Erwar tungen</w>
Heim at</w>
ges unde</w>
beg rün
akzep tieren</w>
W it
Sp ar
Mosk au</w>
fer sen</w>
son n
h ell
schle cht</w>
ü ben</w>
bis schen</w>
men ge</w>
Die sen</w>
M L</w>
Ph en
kö mm
hei ligen</w>
st iken</w>
un vergess
ts o
Zeichn ungen</w>
Dig ital
Bla ck
schön er</w>
Auss agen</w>
ges und
Ele ct
So und</w>
alis ierten</w>
nah </w>
Bur g</w>
Neben wirkungen</w>
Hin blick</w>
wesent lichen</w>
Bestä tigung</w>
F T
säm tliche</w>
behand eln</w>
jen er</w>
innov ativen</w>
G ru
ein heiten</w>
Merce des
a ster</w>
über setzen</w>
b ia</w>
gefra gt</w>
mil li
G O
Dan ke</w>
Eröff nung</w>
15 -
b te</w>
gewünsch te</w>
em a</w>
auth enti
Wei s
Ro ck
st -
Sk ulpt
dar gestellten</w>
versch luss</w>
Arbei ter
mit hilfe</w>
Kon text</w>
Rück gabe</w>
Trin k
erwer ben</w>
A ff
G y
Kommunik ations
L en
effe ktiv</w>
du strie</w>
techn ologie</w>
Brie f</w>
un möglich</w>
b ir
offizi elle</w>
ho se</w>
Arbei ter</w>
P and
gel ern
t at</w>
tro tzdem</w>
The orie</w>
A D
lan gt</w>
Ro s
Min i</w>
län dern</w>
Ho f</w>
z one</w>
gelei sen</w>
Pla yer</w>
kaufen. Was</w>
T al</w>
Re al</w>
auf nehmen</w>
Mil ch</w>
ver tei
Kla vier</w>
Al ph
Liefer umfang</w>
qu is
8 9</w>
ber echnet</w>
dies el
besu chte</w>
at ter
H eb
ri x</w>
E M</w>
sch -
St ep
d icht</w>
stät ten</w>
knapp </w>
Ha are</w>
G läub
sta mmen</w>
er lei</w>
ge kenn
kon to</w>
D et
schwar ze</w>
be zieht</w>
positiv en</w>
Land karte</w>
b iz
system s</w>
Spei sen</w>
erweiter n</w>
B U
. -
fre ut</w>
verw alten</w>
Dimen sionen</w>
Stand orte</w>
29 .</w>
k le
F ur
Sch aden</w>
ier en.
Geschäfts führer</w>
So ur
Kre ativ
R ing</w>
arbei ter</w>
wach st
K et
s .</w>
-S ymb
Wol f
behand lung</w>
b lu
bi o
igh t
Ro t</w>
Ag rit
zw öl
schir m</w>
dan ke</w>
zei le</w>
ausgezeichn ete</w>
erklär te</w>
Er z
fro m</w>
Song texte</w>
sp iegel
geb ühr</w>
gele genen</w>
bess eren</w>
par ks</w>
v al</w>
Bü geleisen</w>
Geb ühr</w>
ro te</w>
zei gten</w>
f eu
Sti ck
w ald</w>
de d</w>
P ed
hei l
Entwick l
ge dacht</w>
Kam pf
t rop
Stu hl</w>
Vol umen</w>
B C</w>
24-Stun den-
zeichn ete</w>
Clo u
her steller</w>
K as
Me dit
gl än
fre qu
be enden</w>
Con c
Z oll</w>
k olle
b lü
Rei hen
ut ton</w>
Mil ch
s itz</w>
Lebens dauer</w>
wi d
P ie
Char me</w>
k ab
Vermie tung</w>
st euer
1 20</w>
ex tra
Zeichn ung</w>
neh mer
kön nt</w>
v it
rech tlichen</w>
früher en</w>
V P
ben ach
A mp
Fot ografie</w>
„ </w>
Chem ie</w>
. Sie</w>
Bro t</w>
spezi alisiert</w>
ren om
met all
rit ten
Mon d</w>
iz ieren</w>
Phil ipp
tra gs</w>
bo ok
Tour ist
internation aler</w>
German y</w>
Appar tement</w>
Finanz ierung</w>
b ungs
ha i</w>
Elektron ik</w>
b ab
produ kten</w>
fr isch</w>
ol en</w>
Schmer zen</w>
Kon ditionen</w>
V an</w>
le gte</w>
Sü ß
Be zeichnung</w>
f ter</w>
po st</w>
wer ks</w>
S A</w>
eist ert</w>
Schließ lich</w>
Kunst druck</w>
zunehm end</w>
Sch rank</w>
Hall owe
bewöl kt</w>
Frü chte</w>
Sw iss</w>
zu g
10 ,
verhin dert</w>
ver län
Lit er</w>
Po int</w>
tä gliche</w>
A st
Erinn erung</w>
gerä ten</w>
bas ierte</w>
stär ke</w>
U K
bo ten</w>
ver mitteln</w>
Bo sch</w>
-Pla yer</w>
elem ente</w>
Pa ck
k rei
Sz ene</w>
angeb ot
ven tion
ungspro je
C C
5 5
Sing ap
ver tik
Sch al
Wal d
Kap ital
welt weiten</w>
geb ühren</w>
Lo ok</w>
Vor her
gehö rigen</w>
ätz t</w>
H A
mobil en</w>
dre hen</w>
Wander n</w>
effizi ente</w>
B it
ex ik
Mass age</w>
Slo wen
häl t
heb ung</w>
m y
heraus ra
E sp
Or ts
H im
Neu igkeiten</w>
W äl
Soll te</w>
mö bel</w>
G ehen</w>
Dem on
vor ne</w>
Vari anten</w>
Men gen</w>
Pflan zen
st ab</w>
Nordi r
Lo unge</w>
ge ord
Las er
Fe edback</w>
ge teilt</w>
3 2
Man chmal</w>
ei ster
Män n
Z wischen</w>
Ta schen</w>
ig keits
sch rau
E ri
mi ted</w>
gew ohn
Fer tigung</w>
Durchschnit t
Bol iv
Sie g</w>
A re
Schw anger
Ess zimmer</w>
System en</w>
Secur ity</w>
qu ellen</w>
yl on</w>
form ationen</w>
Wi ener</w>
dig te</w>
el and</w>
gesetz lichen</w>
ko cher</w>
F ün
EN T
hy th
Par ti
lei ster</w>
A .
Corpor ate</w>
sy mb
ein heit
Rei fen</w>
o ft
zip ien</w>
D in
be frie
Defin ition</w>
T rä
ro b
Dire ktor</w>
V illa
bild ungs
Enterp rise</w>
N ad
I .</w>
ab teilung</w>
in iti
statt finden</w>
Blau </w>
re sul
geb or
Kn ow-
Ab sol
olog isch</w>
Gitar re</w>
halten en</w>
j i
Gemein schafts
Nordir land</w>
sp on
konzentr iert</w>
est s</w>
läss lich</w>
Sard inien</w>
Benutz ern
ver wal
geb nis</w>
viel er</w>
Zuverläss igkeit</w>
Groß er</w>
sp ionieren</w>
Instit ute</w>
un kte</w>
Pflan ze</w>
M es
in es</w>
Untersuch ungen</w>
bo u
lä dt</w>
K ey</w>
ent o</w>
Klima wand
da gegen</w>
s ens
Kli ck</w>
High -
schö pf
S ite</w>
Ma il
-P lan
Er holung</w>
Fü ße</w>
Ger ichts
Ju gendliche</w>
Wün sche</w>
mech anische</w>
Form ul
Pun kten</w>
ww w.
F O
fest gelegt</w>
ber g
zerstör t</w>
gen ehmi
Flug gesellschaften</w>
H i
Tr end</w>
dre ht</w>
R eb
Sal v
Den noch</w>
lie gende</w>
2 50</w>
ar m</w>
Kostü m</w>
neu sten</w>
Wider stand</w>
B ach
Priv ate</w>
geprä gt</w>
ent gegen
wor te</w>
bo ote</w>
rin ge</w>
sp anisch</w>
verstär kt</w>
Telefon nummer</w>
ch ange</w>
Off ice</w>
z ise</w>
e. org</w>
Kenn tnis</w>
G anz</w>
bran che</w>
fal schen</w>
zu behör</w>
stie gen</w>
Gebur ts
vertrau t</w>
Geschäfts jahr</w>
su per</w>
ges ucht</w>
Repar atur</w>
Bild ungs
Frühstücks buffet</w>
Se c
Problem en</w>
de uten</w>
T ier</w>
CA D</w>
Be fest
en ger</w>
Ab hän
wirk lichen</w>
Port folio</w>
Sch ie
-P ra
Them en
elektron ischen</w>
Hy per
ent sch
ber ichte</w>
kurz em</w>
so genannten</w>
be schreibt</w>
Bil der
beeinflu sst</w>
hin ten</w>
Galax y</w>
p ot
s et</w>
Kathedr ale</w>
Er neu
Hei z
W S</w>
z ierte</w>
Vis u
Au dio</w>
E sc
Co des</w>
pap ier</w>
teil s</w>
ökon o
Jun ge</w>
Pla za</w>
ta gen</w>
unmittel bar</w>
s ig
IN G</w>
a o</w>
kri min
g re
Stud ierenden</w>
Da y</w>
inn eren</w>
H unde</w>
P I
K reis</w>
Aus steller</w>
ma schin
Kon kurr
No te</w>
Ph än
stru kturen</w>
nav ig
fäl lig</w>
A kt
est er
A C</w>
K let
Miner al
mar k</w>
pro p
You Tube</w>
Gener al</w>
ess el</w>
Re al
schmer zen</w>
k ung</w>
ausdrück lich</w>
S icht
an gesehen</w>
Mess ung</w>
ra tions
Chr on
prof il</w>
N -
h um
Bi bel</w>
Rück seite</w>
Spann ung</w>
c us</w>
J or
pass enden</w>
voll ständigen</w>
t ot
Grund lagen</w>
v ierte</w>
weit gehend</w>
Effe kte</w>
Li ber
Bas el</w>
Gä ste
Phar ma
ob il</w>
region alen</w>
Deutsch lands</w>
Mass en
gel b</w>
Fern sehen</w>
europ ä
sex y</w>
tie fen</w>
Berechn ung</w>
kün ften</w>
Bru st
aus stellung</w>
W ash
al us
gi c</w>
be ut
ran s
Er füllung</w>
Prä sidenten</w>
ges und</w>
überra schen</w>
Hy bri
Zul etzt</w>
Gewichts verlust</w>
bil ä
er ische</w>
.0 9.
ent worfen</w>
über nommen</w>
w an</w>
ästin ens
stän digkeit</w>
steu ern</w>
c am
frei heit</w>
ler s</w>
Ide al</w>
In tel</w>
h ahn
wo od</w>
Sö hne</w>
In spi
Ausgang spunkt</w>
au x</w>
ru fe</w>
plötz lich</w>
effizi enz</w>
berech tigt</w>
Vitam in</w>
G A</w>
Ma in
Grü n</w>
Exc el</w>
ro bu
g ungen</w>
b on</w>
ach er</w>
typ ischen</w>
K äufer</w>
ot h</w>
Posi tionen</w>
um fassen</w>
ver ab
An tik
ap eu
f iel</w>
relev anten</w>
getr ennt</w>
L aut</w>
H art
Bor d</w>
J ungen</w>
Frem d
Qu er
Aut h
Dor f
Artikel nummer</w>
Re gen</w>
ein mal
Rü cken</w>
Be stimmung</w>
gel t</w>
G or
Se arch</w>
hei m
IP- Adresse</w>
Parla ment</w>
Benutz ung</w>
L t
id s</w>
p d
berühm theit</w>
K en
sch re
Empf ang</w>
An sprüche</w>
vie ws</w>
Engine ering</w>
kontinuier lich</w>
Rechts an
Res ear
Schne e</w>
Un abhän
S D
bezo gen</w>
F ast</w>
Se a</w>
00 -
her auszu
8 6</w>
Ver gnü
E qu
kur se</w>
Situ ationen</w>
ger ungen</w>
V el
Wa ffen</w>
Le der
d. h.</w>
M aus</w>
4. 0</w>
z enten</w>
A ven
Blo ck
Fe der
Bab y
en tiert</w>
Gei stes</w>
b us
Hil fs
An erkennung</w>
pop ul
Über nahme</w>
Exist enz</w>
E tage</w>
v es</w>
opti miert</w>
fi cken</w>
ti gem</w>
Str ategien</w>
9 7</w>
Au stri
d iert</w>
häu f
Am t</w>
Verkauf s
All tag</w>
allgem ein</w>
s eg
Erhö hung</w>
Ö ko
200 1</w>
Archite kten</w>
skla vens
Sil ber
er richtet</w>
schwer en</w>
tiv en</w>
az za</w>
9 3</w>
St ücke</w>
konzip iert</w>
Boliv ien</w>
Flug häfen</w>
Ein wohner</w>
Tit an</w>
S M
Speich ern</w>
Viv ud</w>
Internet zugang</w>
kl are</w>
Di ät</w>
P ho
B ang
g g
Logi stik</w>
Temp o</w>
vel op
st olz</w>
Bau m</w>
O n</w>
Ab stand</w>
F all
h om
Schön e</w>
Gemäl de</w>
a kte</w>
Servic e-
ba i</w>
Her kunft</w>
for n
ge füh
gol d</w>
Ku chen</w>
P anz
K ant
sil ber
as y</w>
No ti
fe ste</w>
spekt akul
druck s
Z oll
Ur teil</w>
zu stand</w>
f l
D em</w>
C ar</w>
Al t</w>
e ste</w>
Sch all
lu stig</w>
Dam pf
an sichten</w>
ver zeichnis</w>
V aters</w>
Camping plätze</w>
op f</w>
neue ste</w>
wie gend</w>
Ein es</w>
benutz er
f it</w>
Fäl le</w>
fal sche</w>
fun ktionen</w>
Schalt fläche</w>
Freund in</w>
ge sprochen</w>
Stud ierende</w>
D ass</w>
nied rigen</w>
a ktion</w>
a ger
Mus ic</w>
rit ts
I mmer</w>
st unden</w>
groß em</w>
gete stet</w>
h te</w>
P otenzial</w>
verschwin den</w>
h am
f änger</w>
Mon d
Acco unt</w>
Net work</w>
c li
hoh em</w>
deut scher</w>
stra hl
Pa y
Te en</w>
br ig
Ris iko
ter rasse</w>
A R</w>
Er stellen</w>
schrei bungen</w>
Män nern</w>
r ischen</w>
V O
sch ützt</w>
ehr t</w>
be frei
Inst agra
w öch
Prophe ten</w>
S amen</w>
t um</w>
Pand ora</w>
ungspro gramm</w>
be weg
M alta</w>
inter nen</w>
hol m</w>
D F
An ges
D ach</w>
Z erstör
akti veren</w>
st euer</w>
Lux us
Gebie ten</w>
lauf enden</w>
Su iten</w>
organis ation</w>
Vi ol
Tepp ich
beg eistert</w>
do ktor</w>
P P</w>
ban ken</w>
Fel d
Sympt ome</w>
Kredit karte</w>
To uren</w>
w -
amp ie</w>
em per
Soll ten</w>
ent stand</w>
Symb ole</w>
At tri
Pro te
erw ünsch
f abri
ol d</w>
fer tigen</w>
ri s</w>
k i
V ent
Leu ten</w>
Öster reich
dis ziplin
Kranken haus</w>
besteh ende</w>
Bes etzung</w>
H ans</w>
berei chen</w>
Hel m
Agent ur</w>
g as</w>
To chter
An trag</w>
Gesetz e</w>
l eute</w>
Ad v
überra schung</w>
Glück ssp
erk enn
sol ches</w>
geb ro
u xe</w>
or y</w>
spe kt</w>
T ok
in zwischen</w>
mi sch</w>
Schwe ster</w>
Innen stadt</w>
B akter
Bestimm ungsort</w>
br ing
Scien ce</w>
Accesso ires</w>
Vide o-
verk auf</w>
Sün de</w>
S zen
EP Ü</w>
B ien
nütz lich</w>
tem ents</w>
Re de</w>
la te</w>
Ver fahr
Resear ch</w>
berücksich tigen</w>
Nor wegen</w>
K au
fäh ige</w>
Tick et</w>
stät te</w>
Agrit uris
eigen er</w>
Besu chern</w>
ra di
erheb lich</w>
elektron ische</w>
E-Ma ils</w>
Mitglied staaten</w>
Bet reiber</w>
b ill
u hr</w>
Komp let
prakti sche</w>
Wahr nehm
Spezial itäten</w>
w in</w>
Wunsch liste</w>
Mitarbei ter
Ac tion</w>
Oper ation</w>
C B
erk ennt</w>
ungs -
sklavens au</w>
des wegen</w>
besteh end</w>
it t</w>
kt s</w>
Ak ademie</w>
d ynami
Technolog y</w>
An na</w>
il er</w>
blo ck
Wil li
de cke</w>
vorhand enen</w>
kün digt</w>
St reifen</w>
Ziff er
Con trol</w>
zuverläss ig</w>
T-Sh irt</w>
frü h</w>
voll kommen</w>
ev ent
T RA
H ell
Lab or</w>
U ser</w>
Sh ops</w>
Franc isco</w>
Bo ard</w>
Perspe ktive</w>
Ro ut
öpf e</w>
Ja ko
In don
Ein ladung</w>
klein ere</w>
c ts</w>
ag n
Ver lag</w>
gelern t</w>
Tra ding</w>
z ettel</w>
G läser</w>
C K</w>
My Lust</w>
H E
sol ange</w>
Haf tung</w>
Fakult ät</w>
hahn rei</w>
ge startet</w>
Natür liche</w>
ot a</w>
ber ger</w>
inform ation</w>
Vor schau</w>
Ar gum
ativ es</w>
berühm te</w>
An fragen</w>
Smartph ones</w>
Ab messungen</w>
be wegung</w>
z ent</w>
Fahr en</w>
sto ck</w>
schla g
Vorauss etzung</w>
Wasser kocher</w>
e uren</w>
Sp uren</w>
7 5
st eine</w>
qualit ativ</w>
Kal orien</w>
Ro ad</w>
O bst</w>
ci o</w>
p otenzi
ist a</w>
brei t</w>
Betra g</w>
t äu
förder ung</w>
Di alog
3 3
. Der</w>
D rop
Europ ä
bo y</w>
fra gte</w>
si </w>
Sch l
ran gem
vor kommen</w>
R ap
b ella</w>
ann a</w>
blau en</w>
Techn iken</w>
mär kte</w>
We gen</w>
Auf nahmen</w>
sch wimm
DL L
am er</w>
G ur
liefer bar</w>
n -
Pf ad</w>
her kömm
Kons um
Wieder herstellung</w>
F C</w>
Kar ls
Geheim nis</w>
G ärten</w>
Kult uren</w>
aktu alisieren</w>
Mit teilung</w>
P C-
ss ab
C D-
en dete</w>
k ern</w>
Inn er
se ch
gen s
v ater</w>
Rec yc
d rän
sa ison</w>
and t</w>
dau ern</w>
D af
M e</w>
Nach mittag</w>
wunder schöne</w>
Praktizier ende</w>
Gra n</w>
er fasst</w>
eins etzen</w>
ent liche</w>
Geor ge</w>
Nür n
gesch ütz
Ad ressen</w>
jem als</w>
US B-
Coun ty</w>
mi te
m utter</w>
Erkrank ungen</w>
Gebrau cht
z ten</w>
stud ierte</w>
proje kt</w>
ro t
20 20</w>
C K
A s
fa ce</w>
ah me</w>
grü ne</w>
kat egor
Argent inien</w>
c as
Ins besondere</w>
re publik</w>
Y u
sk y</w>
ver langen</w>
b it</w>
Fol gende</w>
versch ickt</w>
Co mmer
Pro per
ex terne</w>
p r
pun kten</w>
sch lüsse</w>
H ob
U L
wirk sam</w>
bür ger
Hoh e</w>
fin dest</w>
Ad ress
An griff</w>
ge prüft</w>
eb ü
re fle
ein stellungen</w>
kür zlich</w>
X P</w>
Über ra
ig te</w>
op tional</w>
H un
elektr ischen</w>
L ob
wes enheit</w>
Kreu z</w>
N ähr
H P</w>
.com .</w>
Früh ling</w>
at h</w>
Unit ed</w>
geschn ei
iti v</w>
geh ende</w>
W eine</w>
an s
Mercedes -B
Exp ort</w>
An merk
Josep h</w>
Lö schen</w>
geb ene</w>
Ech tzeit</w>
7 8
í a</w>
Ober flächen
gestal tung</w>
Y acht</w>
nachhal tigen</w>
ver geben</w>
frü h
ober fläche</w>
läu fe</w>
lo hn
-S eite</w>
über prüft</w>
Exten sion</w>
perfe kten</w>
I R
k as</w>
f enster</w>
che mische</w>
Z a
ver si
integr ierte</w>
H än
um gesetzt</w>
Gar age</w>
iz ont
Stra ß
Ger äu
ill on</w>
Adap ter</w>
ami </w>
geschlossen en</w>
Wettbewer bs
ta in</w>
durch aus</w>
Tun n
ka mmer</w>
Spitz en
Ti me</w>
behör de</w>
wus ste</w>
Einf ache</w>
sto ßen</w>
W under
Standard -
Dru cker</w>
a ge
du l
J i
untern eh
nam ens</w>
haf tet</w>
Christ op
Weis heit</w>
< </w>
> </w>
beauf tra
S ig
an forderungen</w>
en es</w>
T or</w>
kostenlo ses</w>
Kön nen</w>
eur er</w>
glau bt</w>
Konver tierung</w>
Dem okratie</w>
T A</w>
ge wer
best möglichen</w>
K anal</w>
ber ge</w>
z ün
integr ierten</w>
Work shop</w>
Völ ker</w>
o ster
nachweis bares</w>
Gefän gnis</w>
Gra fik</w>
Archiv e.org</w>
ein geladen</w>
zertifiz iert</w>
Gri ff</w>
Rea ktionen</w>
F OR
Mal aga</w>
eigen em</w>
ser leb
materi alien</w>
Zertifiz ierung</w>
Ro sa</w>
w un
be hin
er läu
Centr al</w>
Up gra
analys iert</w>
fr ischen</w>
7 2</w>
Erd be
2, 5</w>
Datei endung</w>
Vir en</w>
ungs ver
Konzent ration</w>
zw ungen</w>
auf geführt</w>
ig a</w>
ni ve
de hn
schwer e</w>
ens ei
brau n</w>
prä zise</w>
l euch
to -
di ges</w>
O hr
Pass ag
Geschäf ten</w>
Stand orten</w>
ard o</w>
i Pad</w>
pp t</w>
li ziert</w>
w ettbewer
ta te</w>
C ent
m te</w>
Z elle</w>
klei dung</w>
G A
gesetz ten</w>
b ahn
Son gs</w>
K äl
fäh igen</w>
Tan z</w>
ch ten
er hoben</w>
p ress
B eine</w>
offens ichtlich</w>
on o
B le
kü mmern</w>
reg ierung</w>
ver kauf
et es</w>
00 0
Mie te</w>
w ser</w>
ü </w>
erz ielt</w>
Stati stiken</w>
hot els</w>
j o
icht ss
12 ,
St y
Sor timent</w>
erneu er
t ende</w>
ger icht</w>
K m</w>
C lau
Kosme tik</w>
Autom in
e ck</w>
p h</w>
verein t</w>
Sicher heit
h i
Hoch wer
Fli r
gew innt</w>
Ber ücksich
Mahl zeiten</w>
on i</w>
s ame</w>
Sch lo
betroff enen</w>
mil ch</w>
Zu schau
Geschen ke</w>
der ten
er ran
Gel ände</w>
far ben</w>
Weiter entwicklung</w>
Sal z</w>
Stre ss</w>
E D
Stu fe</w>
Se e
ein -
ar isch</w>
be zahlt</w>
Pal ma</w>
In se
E is</w>
Fa ktor</w>
aufmerk sam</w>
bas is</w>
Di ffer
Laut sprecher</w>
s eiten</w>
8 8
industri ellen</w>
Bem üh
nehm ern</w>
T V-
lu ft
telef on
gefüh l</w>
bade zimmer</w>
ob l
olo gen</w>
Armb and</w>
än gt</w>
wi der</w>
mi scher</w>
zwöl f</w>
S and</w>
äh le</w>
B om
Bezir k</w>
M L
Aus gang</w>
s ä
er gibt</w>
sch ä
D es</w>
Caf é</w>
Op en
Stamm baum</w>
Gum mi
erforder lichen</w>
Beteil igung</w>
An stieg</w>
Hü gel</w>
ni fik
Ther apie</w>
Verein ten</w>
rau chen</w>
rechn ung</w>
en kt</w>
sta at</w>
Sh ang
tz immer</w>
a bet
be gan
Gi pfel</w>
Gew ebe</w>
Netz werke</w>
Reg ierungs
Schlaf zimmern</w>
ergän zen</w>
z ielen</w>
La st
E ma
Partner suche</w>
Ro sen</w>
ret ten</w>
Wahr schein
Pap st</w>
Ele ganz</w>
mm a</w>
Slowak ei</w>
gesamm elt</w>
B all</w>
eh ene</w>
besch ränkt</w>
B ER
Sch le
Mar bella</w>
ma ß</w>
Repli ca</w>
Ju bilä
Hard core</w>
P läne</w>
ver arbeiten</w>
Man gel</w>
ho u</w>
Buch st
mp ft</w>
í </w>
eu s</w>
Aus gaben</w>
sta ste</w>
dank bar</w>
C Z
Stati stik</w>
Om eg
6 4
E ther
Sol che</w>
zu läss
s ern</w>
Unter künften</w>
erleich tern</w>
6 5
T in
u ps</w>
Komp lex
g in
To sk
A A</w>
elegan te</w>
ss ens
mittler weile</w>
ic al</w>
Softwar e
rü cken</w>
Eigentü mer</w>
em ap</w>
ern st
Musik er</w>
r ent</w>
rah men</w>
Lu c
So f
Ta stat
Ent wurf</w>
un n
besch lossen</w>
Bu cht</w>
bla s
V aku
h ure</w>
geförder t</w>
Gesell schaften</w>
ra tionen</w>
IS PO</w>
ss on</w>
er fassen</w>
24-Stunden- Rezeption</w>
Fil e</w>
Leip zig</w>
lie ber</w>
A ri
V ögel</w>
Ziffer blatt</w>
Ein haltung</w>
st rei
E mi
eben e</w>
Vor schläge</w>
li ve</w>
eu ert</w>
ein geben</w>
ro sa</w>
K oll
kör per</w>
Vie t
Automin uten</w>
S W
äu fe</w>
erst off</w>
Medizin ische</w>
R in
war tet</w>
Mas ke</w>
Invest oren</w>
C S</w>
te .
Do u
kult ur</w>
f luss</w>
Aus land
progra mme</w>
Ein tritt</w>
er o</w>
S eb
Instit uts</w>
Welt weit</w>
durchzu führen</w>
Toil ette</w>
F F
Imp ul
Dimen sion</w>
un en</w>
k as
Sol daten</w>
schn itte</w>
War en
V ul
Ge gner</w>
fahr ten</w>
ati </w>
De velop
br enn
P ast
mu ster</w>
Bas s</w>
Hallowe en</w>
ar ien</w>
Mercedes-B enz</w>
gl .</w>
mot or</w>
P A</w>
läu f
r and
par k
Ber ich
ausge geben</w>
Termin al</w>
9 4</w>
An ordnung</w>
Sch ick
par all
gen .
Wi -F
der selben</w>
Hin der
will st</w>
lü ssen</w>
Di abe
k an</w>
-S ysteme</w>
m .</w>
F an
Flug zeug</w>
Ne use
hör t</w>
li sten</w>
So uth</w>
Li ssab
kenn en
be ding
ha are</w>
f ok
ange wendet</w>
hän ge</w>
christ lichen</w>
s ige</w>
Spezi alisten</w>
Sil ik
Kamp agne</w>
E ssen
Wolf gang</w>
Menschen rechte</w>
ch ent
So fort</w>
Ca stell
Zusammens etzung</w>
it -
art s</w>
b le
Er st</w>
ex por
opti mieren</w>
komplex e</w>
str ategie</w>
Eu ch</w>
Mit tage
imp or
Ant rieb
Ergeb nissen</w>
X L</w>
i x
T ot
Fa x</w>
Sti l
unter suchen</w>
h är
or n</w>
niedr iger</w>
te stelle</w>
Ü bung</w>
wu ß
mon at
nach zu
Ger ade</w>
Solu tions</w>
Ro se</w>
w at
M in</w>
lät tern</w>
tau schen</w>
tie fe</w>
inn en
unterschied lich</w>
C hal
And alus
.0 1.
Hal tung</w>
kostenfrei es</w>
F ische</w>
mittel alter
S em
-Pra kti
K rone</w>
Ver brauch</w>
Ru f</w>
Regi ss
Sch affung</w>
Per iode</w>
Ro hr
Ver suchen</w>
ge pfle
g licher</w>
Sh utt
un erwünsch
q </w>
an i
m achten</w>
war m</w>
I D
il i
abonn ieren</w>
öff nete</w>
Ab reise</w>
bin den</w>
Groß handel</w>
To u
Vor trag</w>
sch alter</w>
hilfrei ch</w>
ung al
an ischer</w>
hin ein</w>
ell e
su chten</w>
form ul
De vis
3 4
star t</w>
AT E</w>
Vi d</w>
Pro ven
Vor jahr
Ein z
Lang u
Privat sphäre</w>
französ ische</w>
E T</w>
Früh jahr</w>
Um frage</w>
Mur cia</w>
I ran</w>
Geb ühren</w>
sch o
D ä
I biz
Nor d</w>
bl in</w>
S ied
be an
Sing leb
Wash ington</w>
eb t</w>
ru f
lie bt</w>
au en</w>
K ing
Ver breitung</w>
Singleb örse</w>
k W</w>
am ar
Gew inn</w>
Zu g
spro du
freund lichen</w>
hör te</w>
Um ständen</w>
li t</w>
- Sch
Aus bau</w>
T V
D ritten</w>
K ul
be antworten</w>
herr lichen</w>
Ex change</w>
. ch</w>
komfort abel</w>
religiö sen</w>
Pop ul
Versch lüss
er for
Whirl pool</w>
Gu ide</w>
ü stet</w>
einst all
Ga str
K ass
J ames</w>
G VO</w>
opti malen</w>
fin g</w>
bas ieren</w>
Wör ter
mm s</w>
y o</w>
mäß ige</w>
Ab end
bau ten</w>
Wer den</w>
wach senden</w>
K ö
Schri ft</w>
s lo
Hin sicht</w>
A le
Exp ress
a fft</w>
ah en</w>
Bi o-
Ul tra
unterschei det</w>
Re f
an statt</w>
verbin dungen</w>
Poli tiker</w>
Stero ide</w>
k abel</w>
H öl
c an</w>
Auth enti
Holl and</w>
Edelst ahl
groß zü
ag ent
sch eine</w>
einzigar tig</w>
Cu st
zei tige</w>
Fig ur</w>
n atur
ent al
Imp lem
gl eb
G anz
Sp alte</w>
entsp ann
Wi d
sp iegel</w>
zukünf tige</w>
ro r</w>
Gei st
Nor men</w>
v ierten</w>
Mittage ssen</w>
N eb
neu tr
i dar
Flir tso
ha gen</w>
G S
Gegen stand</w>
Pa are</w>
Dekor ation</w>
V A</w>
icht liche</w>
Bal ance</w>
Motor rad</w>
ar zt</w>
Gehir n</w>
lit er
i re
ag ner</w>
Blu eto
Ober flächen</w>
lei ste</w>
mer kt</w>
Les er</w>
Zusammen fassung</w>
Gewin ner</w>
Arz nei
fil ter</w>
be herr
an schluss</w>
stau r
Festiv als</w>
C el
De c
Mal erei</w>
kur zer</w>
für s</w>
Ch ile</w>
Instagra m</w>
Pf und</w>
holländ isch</w>
Cli ent</w>
identifiz ieren</w>
9 8
Ter ror
kon sul
d on</w>
t le</w>
komm e</w>
Norda merika</w>
Kin des</w>
mi en</w>
s amen</w>
Mo z
begrenz t</w>
offizi ell</w>
Sp i
Eis enb
Prei s-
ch test</w>
F antas
er maßen</w>
gew achsen</w>
V ar
w alt</w>
f i</w>
D ir
t anzen</w>
J ung</w>
vide o</w>
g in</w>
ein stellen</w>
Su ites</w>
Vis it
Flie sen</w>
vor gesehen</w>
soll test</w>
ens iert</w>
et a</w>
a mm
Ka is
vor aus</w>
lan z</w>
umfang reiche</w>
Pressemit teilung</w>
rän ken</w>
g l</w>
Ein will
Reg ierungen</w>
Be wohner</w>
Konzer te</w>
Jugend lichen</w>
her e</w>
so genannte</w>
stand ards</w>
um ge
arbei ts
r er</w>
ähn lichen</w>
ges unden</w>
Nu Vid</w>
ien te</w>
komfort able</w>
b ie</w>
beklei det</w>
M M
ass ozi
Produ ktivität</w>
bli cke</w>
gül tigen</w>
gele gene</w>
A vi
ste d</w>
Distri bu
Explor er</w>
Er inner
Ala mo</w>
Fir m
UN D</w>
är er</w>
Mau staste</w>
typ ische</w>
ger ichtet</w>
sch üt
zu gs
Ter min</w>
gi en
Aus blick</w>
b at</w>
Rei ß
c om</w>
Da für</w>
freund licher</w>
TO P</w>
b lin
bis exuell</w>
H ô
Kon sol
7 1</w>
Bedro hungen</w>
Fär bung</w>
I K
Mus keln</w>
Fil ter
cre ampie</w>
Autob ahn</w>
Hö hep
s ende</w>
hin gegen</w>
CO 2-
Kü sten
Akti en
umfass enden</w>
sig nifik
Aspe kt</w>
Tä tigkeiten</w>
C la
ma p</w>
Bun de
Energ y</w>
Cock ta
wachst um</w>
elekt ro
k anal</w>
on line-
tiv ir
sich tig</w>
veranstal tungen</w>
y n</w>
d ichte</w>
f ische</w>
ko ordin
er lebt</w>
d eines</w>
Gen f</w>
So mit</w>
CH E</w>
Man u
Plat te</w>
bet tzimmer</w>
Mar i
ver kün
Y oga</w>
äch er</w>
ell os</w>
Mat th
Liebl ings
Magn et
Stef an</w>
all eine</w>
B ier</w>
S tern</w>
mod elle</w>
Profession elle</w>
Min der
angen ehmen</w>
sa ck</w>
geh enden</w>
o ci
ess ion</w>
Internet seite</w>
Au dio
dar stellt</w>
am m</w>
Be weis</w>
er gebnisse</w>
gesch ritten
an geschlossen</w>
Wand el</w>
C in
m exik
Stoff e</w>
Ab satz</w>
h ü
ei gnen</w>
n ord
voll es</w>
Schiff e</w>
gew ebe</w>
schlä gt</w>
ir ge</w>
bri tischen</w>
mei ster
Z yp
Fot ograf
ver s</w>
-Prakti zier
regi on</w>
Emiss ionen</w>
re c
Unterneh men
Aus richtung</w>
den kt</w>
Refer enz
Sti ef
f r</w>
Ver ein</w>
Tim es</w>
Well en
p ret
B ahn</w>
Las er</w>
Rich ard</w>
R io</w>
Sat -TV</w>
e ti
Auf preis</w>
zu tage</w>
N ation</w>
Bulgar ien</w>
di men
dopp elt</w>
Lu dwi
bo ok</w>
verbess erte</w>
6 8
is ierte</w>
gekenn zeichnet</w>
Är zte</w>
Te ch</w>
Angel es</w>
Ess bereich</w>
Browser -
b ten</w>
fest gestellt</w>
Auf trag
For en</w>
Residen ce</w>
Tosk ana</w>
ge halt</w>
izz a</w>
Slowen ien</w>
D ün
Fer ien</w>
teil te</w>
Oran ge</w>
J .</w>
rei se
z ierten</w>
VI P</w>
ges ichtss
Heil ige</w>
Appar tements</w>
Ju gend</w>
gewöhn liche</w>
alt h</w>
kämpf ung</w>
SP I
Fit ness</w>
n acht</w>
Fü l
den z</w>
z auber
P ä
berech nen</w>
f lot
ba den</w>
Fuß ball
a in</w>
av ar</w>
began nen</w>
Ver pfle
lin es</w>
ap e</w>
Be ur
Durchschnit tliche</w>
ni k</w>
Währ ungen</w>
mög lichkeit</w>
L enk
Nach rich
Pre ss</w>
Belieb te</w>
9 5
Stra f
ür tel</w>
Fortsch ritt</w>
od elle</w>
is ra
L abel</w>
zu zu
sen si
Pau schal
Off ic
hinzu zufügen</w>
her vor</w>
at ure</w>
be stellt</w>
Z eh
Gemeins am</w>
d al
sp reis</w>
ck ing</w>
B .
omet rie</w>
Analy tics</w>
Stei gerung</w>
op tionen</w>
t yp</w>
k us</w>
Gu est</w>
q m</w>
al ph
Arbeit geber</w>
che mischen</w>
Ho t</w>
stra tion</w>
le der</w>
Ibiz a</w>
Einkauf serleb
te en</w>
selbst verständlich</w>
Gegen stände</w>
sh ip</w>
er fordern</w>
Ser ien
G M
Eben so</w>
it h</w>
U V-
I V</w>
tö ten</w>
unabhän gige</w>
é e</w>
kombin ieren</w>
erwor ben</w>
S D</w>
E c
rä um
na m</w>
I ra
über greif
Inst ant</w>
West ern</w>
reich ung</w>
g ge</w>
ver dienen</w>
mut lich</w>
ho s</w>
Rezep t</w>
analys ieren</w>
Präsen z</w>
erhöh te</w>
T reib
K ern</w>
betro ffen</w>
Fuß ball</w>
Se arch
mitglie der</w>
Fron t</w>
ut u
gebie ten</w>
Min im
re alisiert</w>
Intellig enz</w>
P ick
sa gten</w>
Sy rien</w>
ver boten</w>
M achen</w>
auf s</w>
the ore
r einigen</w>
ing o</w>
Pi azza</w>
f ischen</w>
R ica</w>
Veg as</w>
Univers itäts
kon vention
hei mischen</w>
sh op
ran g</w>
kon st
schaf ter</w>
Richt linie</w>
Q U
Gra ph
S hr
hal b
Salv ador</w>
S ant</w>
ges endet</w>
Fla sh
E ver
N et</w>
Ver mö
ränk ung</w>
CE O</w>
ver letz
Nort h</w>
Digit alisierung</w>
gewi sse</w>
Hol ida
famili en
geeign ete</w>
Prin zipien</w>
progra m
Erfol gs
mon tiert</w>
St üh
Alp en</w>
Fli x</w>
lie ßen</w>
L ake</w>
Sn ow</w>
Chines ische</w>
x is
vers ehen</w>
ger in</w>
EP A</w>
lich ten</w>
H em
Investiti ons
g on</w>
Kenn tnisse</w>
Andalus ien</w>
è re</w>
Bes ich
b ul
v as
Pla ce</w>
Gran ada</w>
I l</w>
p ier
i Po
Spekt rum</w>
An fänger</w>
Liebl ing
sü d
Bro sch
drü cke</w>
C ir
b ank
H U
gemein schaft</w>
un ion</w>
us h</w>
ste ckt</w>
T C
h on
ant en
Kerami k</w>
Ta i
Konzep te</w>
Übersetz ungen</w>
Isra els</w>
Fahr zeugen</w>
M y</w>
Flug tick
Tau ch
Zusa mmen</w>
sp olitik</w>
EU R
an erk
Val ent
Zeit schrift</w>
Vi ctor
jü dischen</w>
.0 6.
ür en</w>
isra el
A l</w>
ä uren</w>
frei er</w>
gesichtss itzen</w>
Schat z</w>
j i</w>
om ie</w>
schla fen</w>
geist igen</w>
stand s</w>
seh e</w>
be arbeitet</w>
Re verse</w>
Ver lauf</w>
Gefüh le</w>
flug hafen</w>
herunter geladen</w>
Dunk el
el ast
ver an
war men</w>
über schrei
ba o</w>
Reihen folge</w>
Werk zeug
Char les</w>
S et
Physi k</w>
Kreativ ität</w>
G EN
Nutz er
-P rä
Cons ult
interess ieren</w>
Ver gleich
Sch öpf
ten -
vert rauen</w>
gebrau cht</w>
Attra ktionen</w>
n es</w>
Zu erst</w>
rat s</w>
Urlau bs
G PS</w>
Se ktor</w>
pass ieren</w>
Beob ach
kl .
Fo unda
is la
genü gend</w>
Sn ow
G ig
Bedro hung</w>
Bemüh ungen</w>
Sonder angebote</w>
temp or
Genehmi gung</w>
ersch ien</w>
K ing</w>
f ur
P ur
Te en
CH EN</w>
Ch ic
b an</w>
Lat ein
D M
p issen</w>
N ei
Eigen schaft</w>
v il
Sl ots</w>
ge füllt</w>
ver wei
spür en</w>
Kamer as</w>
Del uxe</w>
V ati
Spül maschine</w>
klimatis ierte</w>
Tan z
Sign ale</w>
a di
komplex en</w>
omet ern</w>
f ield</w>
Tat to
199 9</w>
modu s</w>
Kali forn
neg ativen</w>
verbun denen</w>
en falls</w>
B ike</w>
Him be
sk al
grund sätzlich</w>
Inner halb</w>
überw achen</w>
ch tung</w>
sch on
Deskt op</w>
Beru f</w>
V ista</w>
P M</w>
gel ist
o o</w>
ber ichten</w>
Vert rau
cht um</w>
and s</w>
st erk
Wa gen</w>
Vertei digung</w>
at ing</w>
E IN
Durch schnitt</w>
K reis
fr isch
Re ferenz</w>
unterschied licher</w>
ko st
häl tnisse</w>
Bar r
Deta il
ut h
wä ss
7 00</w>
Ver lu
por no</w>
jem anden</w>
nü pf
elegan ten</w>
über zeugen</w>
M ill
über win
beru h
Hei mat
U V
sch e
U N</w>
Char ter</w>
O S
Stock holm</w>
region ale</w>
Eink lang</w>
er schaffen</w>
F est</w>
Transpar enz</w>
Ge gent
Univers um</w>
Wol f</w>
Beru f
leb te</w>
★ </w>
Zy lin
repar ieren</w>
ausger ichtet</w>
Verb rechen</w>
T ieren</w>
sch ien</w>
Berücksich tigung</w>
Lissab on</w>
An tivir
Empfeh lung</w>
m herz
zukünf tigen</w>
k et
zi t</w>
T O</w>
fehl ende</w>
Alkoh ol</w>
ge zwungen</w>
st im
Kri tik</w>
griech ischen</w>
Know- how</w>
B y
Wil hel
kon sequ
n etz</w>
Ku ba</w>
mil y</w>
be hält</w>
St yle</w>
Besu cher
Du ft</w>
and o</w>
ru he</w>
Sü do
H it
o de</w>
j enen</w>
ch ts
Genau igkeit</w>
Kat hol
B lin
CZ K</w>
wu chs</w>
arbei teten</w>
iel te</w>
bew ähr
brig ens</w>
kontroll ieren</w>
be heben</w>
stei gert</w>
Weltkrie g</w>
J az
Gesprä ch
Yo u</w>
The ater
ent e
en. Die</w>
San ti
aus gelegt</w>
durchschnit tliche</w>
Mär kten</w>
Bo ur
Shang hai</w>
ier en
Gener ationen</w>
n ass</w>
Austri a</w>
La yo
k k
v al
E ier</w>
irgend einem</w>
rau m
alo ge</w>
J eh
Tra g
Or chester</w>
li ssen</w>
Mar ok
disku tiert</w>
Bay ern</w>
fr ische</w>
In halten</w>
Pro gn
й </w>
rit z
W ahlen</w>
hodo xe</w>
Aktu alisierung</w>
Refer enzen</w>
Test oster
Analy sen</w>
co mm
übri gen</w>
Ob st
Hoch schul
ru cken</w>
Augen blick</w>
verring ern</w>
Kin o</w>
Be am
ä ten</w>
Netz werken</w>
5. 00</w>
Wahrnehm ung</w>
in o
sch all
ges etz</w>
wunder bare</w>
ta ten</w>
Kar l</w>
r unden</w>
G ong
Del eg
ic y</w>
i al</w>
d än
Pa ck</w>
Du sch
gra ben</w>
B lei
herz lich</w>
schü chtern</w>
der e</w>
W üste</w>
L ight</w>
U fer</w>
schlä gen</w>
Artik eln</w>
te c</w>
ag li
Gebäu den</w>
Ab lauf</w>
Rezep te</w>
st he
Hand buch</w>
Comp any</w>
Sitz ecke</w>
korre kt</w>
7 7</w>
iti onen</w>
an erkannt</w>
II .</w>
Exp ort
zu r
n ers</w>
mü s
C L
we hr
Kla ssen
ver steht</w>
D ES
ra tion
zwei mal</w>
mpf er</w>
gesellschaft lichen</w>
Met rop
g an</w>
intensi v</w>
Begegn ung</w>
Katal onien</w>
gel s</w>
proje kte</w>
Nürn berg</w>
ver öffentlichen</w>
la ck
Anton io</w>
Bil bao</w>
angeneh me</w>
inn ere</w>
unter gang</w>
Mitglied s
Grün der</w>
Hu b
tr ennen</w>
ti me</w>
Rol ex</w>
mi kro
Me et
vol umen</w>
end sten</w>
lei chten</w>
Arbeitsp latz</w>
R eh
Wer ken</w>
konzep t</w>
irgend wo</w>
et ter</w>
Exper im
bein halten</w>
An lass</w>
hei ß
ko oper
Online- Shop</w>
up -
ü bung</w>
ö hnen</w>
öffent lich</w>
Aufenthal ts</w>
l y
ind isch</w>
Höch st
Prin zess
pen sion</w>
W örter</w>
gen e
Camp us</w>
burg h</w>
eut zutage</w>
auf ent
sich ert</w>
j ob</w>
aus geschlossen</w>
. 1</w>
Verbess erungen</w>
ver trag</w>
S haft</w>
National park</w>
Persön lichkeit</w>
versch lüss
bra silien</w>
To des
flexi ble</w>
Zei le</w>
zieh ung</w>
Pot enti
g ran
be kam</w>
tili en</w>
defin ierte</w>
es h
gew ann</w>
F ash
Präzis ion</w>
Lauf werk</w>
geb ucht</w>
K ak
A D</w>
fr ist</w>
re geln</w>
men ü</w>
Prot ot
A tem
bisher igen</w>
n i</w>
Autom odelle</w>
P M
h s</w>
Mega Tube</w>
Inn eren</w>
Singap ur</w>
hin weg</w>
Modu l
Su n</w>
T eu
Pal ace</w>
ger inge</w>
D ess
Blo ck</w>
chen s</w>
Tick et
man che</w>
ac y</w>
Spiel s</w>
zei ts
Niederlan den</w>
G H
Z auber
hervorra gend</w>
vier tel</w>
i OS</w>
al istische</w>
kontroll iert</w>
bou tin</w>
Wi ssens
mo dern</w>
Du bai</w>
ex klusive</w>
er innen</w>
Founda tion</w>
H ül
. Wir</w>
Ba st
Lei den</w>
durchge führten</w>
Wurz eln</w>
An nahme</w>
C F
finanzi elle</w>
exist ieren</w>
Seg ment</w>
K ran
wei </w>
pro t
Par ks</w>
1 20
T om</w>
Kredit karten</w>
ver langt</w>
kein erlei</w>
Ro sen
m äh
ge stattet</w>
Pro ben</w>
ins el</w>
Pfer d</w>
äl er</w>
Schick s
ger ingen</w>
Ass oci
P av
ab sich
Sau ber
B latt</w>
Multi p
geh e</w>
H av
B ungal
Chin as</w>
Par ad
gor ith
Groß en</w>
Mo se</w>
Du blin</w>
Neu en</w>
lei tet</w>
Einwill igung</w>
Pri ma</w>
C C</w>
K it</w>
├ </w>
Klei der
We chsel</w>
App li
Verschie dene</w>
On lin
ver hältnis</w>
du ras</w>
7 9</w>
b nis</w>
inst itu
sch lan
bour g</w>
ohl ene</w>
M ater
Lebens mitteln</w>
Rich ter</w>
Str ö
Medi um</w>
j o</w>
Ver ona</w>
belieb te</w>
Zei tung</w>
Al ber
bild ungen</w>
Ma y
Evangel ium</w>
Cont ent</w>
op le</w>
Support -Team</w>
rie bene</w>
ab gel
S us
á n</w>
am in</w>
ersch ienen</w>
Plat tformen</w>
St ück
an zig</w>
7 6</w>
Cook ie</w>
Mon te</w>
Bre m
entscheiden d</w>
Tro cken
Br ut
S Q
Benach rich
r and</w>
P .</w>
in mitten</w>
Fortsch ritte</w>
r h
staat lichen</w>
Wol fra
ff in
ausge stellt</w>
R ang</w>
fot ograf
nor male</w>
An gabe</w>
E A</w>
Reich weite</w>
Jahrzeh nten</w>
Unter lagen</w>
per man
Buch ungen</w>
berat ung</w>
O pp
t al</w>
hau t</w>
Sp äter</w>
ver glichen</w>
Ab kommen</w>
Hy dro
wohn ung</w>
T rip
Market ing
l ab
Konz ern</w>
An nehm
s z
Kin d
Wachst ums
E last
G o</w>
R und</w>
Aus zeichnungen</w>
kamp f</w>
B L
il leg
14 ,
2 1
C art
Sti mm
W ett
Res ul
intellig ente</w>
Mathem atik</w>
.0 5.
Betre uung</w>
an fordern</w>
ehemal ige</w>
Ern ähr
Touris mus
An avar</w>
kl aren</w>
Mot oren</w>
be f
energ ie
r ats
Sor gen</w>
be her
Fran z</w>
Klo ster</w>
Sho pping</w>
p lätzen</w>
wesent liche</w>
K I
Re da
Gast freund
verring ert</w>
1 x</w>
bö den</w>
Mess e
ig ungen</w>
ent gegen</w>
Je den</w>
gew inn
3 9
bis lang</w>
hol ungs
dr ich</w>
bei zu
Artik els</w>
gehör ige</w>
Gegent eil</w>
Con ver
an zeige</w>
O f</w>
konsul tieren</w>
Ta schen
b i</w>
re gen</w>
7 4</w>
antwor tete</w>
S a</w>
p umpe</w>
er ia</w>
se c</w>
Bre men</w>
intern e</w>
stär kt</w>
phys ischen</w>
organis ationen</w>
Gen re</w>
v iert</w>
is men</w>
Elem enten</w>
Bon n</w>
wissen schaft</w>
tra vel</w>
äl teren</w>
kop ieren</w>
Ser b
K ell
Repar atur
riesi gen</w>
über geben</w>
t reiben</w>
Ro uten</w>
Bran chen
aufge teilt</w>
fil e</w>
Er satz</w>
Re cher
Se en</w>
mittl eren</w>
pfle ge</w>
prakti schen</w>
defin ieren</w>
Sit emap</w>
Les e
Leistungs fähigkeit</w>
Per len</w>
e y
Tan k
as y
da d</w>
ti en</w>
Far m</w>
Gar den</w>
For derungen</w>
grün den</w>
anz ahl</w>
An lagen
au lt</w>
hier für</w>
berühr t</w>
K ris
lamp e</w>
fa milie</w>
c al
finanzi ellen</w>
Kä se</w>
moder ner</w>
geräumi ge</w>
Gr ill
Kompon ente</w>
z ie
nive au</w>
vor genommen</w>
Bal ear
ar tigen</w>
W u
Grafik en</w>
ensei ts</w>
Aus zeichnung</w>
ann y</w>
m au
Indu str
olog ischer</w>
G an
Seb ast
Mer ken</w>
über sicht</w>
durchschnit tlich</w>
fahr zeuge</w>
kompon enten</w>
Highl ights</w>
Er be</w>
Fot ogra
Tipp </w>
Frau en
ds m</w>
lan ger</w>
zu kunfts
Mon ats</w>
sp u
S ele
au stausch</w>
I G
fir men</w>
her unter</w>
Ch irur
Verhand lungen</w>
4 4
o sen</w>
Neuse eland</w>
h üb
Colle ction</w>
Erwachsen en</w>
0 5
h ell</w>
gül tige</w>
Do ktor
e cht</w>
Tats ächlich</w>
befrei t</w>
k alien</w>
Mo de
län dischen</w>
ungs weise</w>
Co up
l us
rech tliche</w>
Amb iente</w>
Ä l
sei tige</w>
ler -
Fun k
bar ten</w>
gän gen</w>
fü ße</w>
Ima ge</w>
Lou boutin</w>
problem los</w>
stell bar</w>
char man
s kop
Aufent halts
ein gang</w>
a al</w>
akzep tiere</w>
schw ör
it e-
Benutz ern</w>
De cke</w>
re stauran
gr enzen</w>
ist ik</w>
Ch at
Initi ativen</w>
Hei del
wie s</w>
.0 3.
unglau blich</w>
trä ger</w>
maß geb
Kur z</w>
Besch leun
Contain er</w>
geb lieben</w>
mess ung</w>
Überein stimmung</w>
ss -
Fun da
fra gt</w>
di te</w>
St an
am ing</w>
medi zin</w>
Ge fr
st it
ra c
t end</w>
Lie ge
lä ßt</w>
feh ler</w>
Kompet enz</w>
M ar</w>
mass e</w>
über setzt</w>
s -</w>
gl .
anc e-
invest ieren</w>
fol gte</w>
sü dlichen</w>
Tap ete</w>
N T
Der zeit</w>
r eine</w>
Mess er</w>
on ischen</w>
er ei
D ingen</w>
sen ken</w>
sp annen</w>
US B
is ierten</w>
ow s</w>
haus es</w>
Batter ien</w>
symb ol
mi scht</w>
Gebäu des</w>
L och</w>
ation spro
Exper i
Ber ater</w>
1- 2</w>
exklus iven</w>
stu fe</w>
Speich erung</w>
speich ert</w>
Mobil telef
hei ß</w>
zentr al</w>
sp an
anbie ter</w>
Por sche</w>
me dit
Schn itt</w>
beein träch
B ern</w>
beglei ten</w>
gem essen</w>
Verpack ungs
Projekt es</w>
nö tigen</w>
physi kal
engl ish</w>
An la
außer ord
B ad
An schluss
hor izont
dimen sion
Er stens</w>
wert volle</w>
mon d</w>
Bakter ien</w>
is -
Ge wer
Kaliforn ien</w>
v ar
mon ster</w>
T ut
. org</w>
de t
amer ika</w>
Tag ged</w>
D einen</w>
Infe ktionen</w>
o ut
Stau b</w>
D D
Mom ente</w>
A M</w>
afri ka</w>
Schmer z</w>
verlei ht</w>
W ände</w>
verknü pft</w>
v a
spä teren</w>
UN ES
ier a</w>
Mol e
p an
grundle gende</w>
Web cam</w>
b ut
vide os</w>
ett a</w>
ell i</w>
Mod ellen</w>
beob achtet</w>
stau sch
Sie mens</w>
7 8</w>
rans fer</w>
00 1</w>
n isch</w>
Vor schlag</w>
ak er</w>
ebü ros</w>
pers on</w>
pd f</w>
Ursp rung</w>
Bl ond</w>
Met al</w>
ot h
Beweg ungs
Monit or
ieh lt</w>
Spa ce</w>
wäl te</w>
K ron
sp anischen</w>
Hor iz
Mietwagen angeboten</w>
Rück en
Tur m</w>
Gesprä che</w>
Frequ enz</w>
Annehm lichkeiten</w>
Haus halts
Max -Plan
Sk y
maß geschnei
Gebie te</w>
b ische</w>
Son y</w>
T as
Mess ungen</w>
Z -
Nichtraucher zimmer</w>
Akk u</w>
besonder es</w>
lö st</w>
Sp lit</w>
stu dio</w>
et o</w>
Sch icht</w>
äst he
Verfüg bar</w>
n amen</w>
system en</w>
Merce des</w>
Joh ann</w>
er langen</w>
verl etzt</w>
-B ro
G az
J on
Pix el</w>
gesch ah</w>
S I</w>
St ri
dienst leistungen</w>
wa ff
Blo g
Fü gen</w>
ab elle</w>
Land schaften</w>
Bis her</w>
le gend
Alli anz</w>
stie fel</w>
m antel</w>
Br and</w>
Te e
Dienst leister</w>
belieb ten</w>
Ap othe
di daten</w>
Ab s</w>
W ellen</w>
She Shaft</w>
W AR
Br ust</w>
rich ter</w>
Poli tik
führ ender</w>
P el
E .
Dar um</w>
hei zung</w>
ä len</w>
f aust
N ie
Ar ena</w>
Z igar
He kt
zu folge</w>
Einkaufserleb nisses</w>
B enz
E cht
an leitung</w>
be sich
Trans formation</w>
eh </w>
Por zell
stü cken</w>
Ve get
So wj
Cru z</w>
unabhän gigen</w>
for sch
Link ed
ur es</w>
D ame</w>
O ver
Ju st
Nieder schlag</w>
Tschech ien</w>
Frei e</w>
K ne
ru ft</w>
schle chten</w>
setz ten</w>
â </w>
G ül
rü st
Glau bens</w>
H L</w>
Gewin ne</w>
bewahr en</w>
hal tungs
spiegel t</w>
Zerstör ung</w>
geh äuse</w>
Fü ll
M ich</w>
ver mittelt</w>
W ar</w>
renov iert</w>
ö stlichen</w>
Aus stell
en gen</w>
st iges</w>
Aus flu
gefäl lt</w>
US- Dollar</w>
stan des</w>
g lichkeit</w>
Storn ierung</w>
Para dies</w>
kap ital
m e-
Acc ess</w>
F T</w>
leb enden</w>
Inter pret
Robo ter</w>
unter richt</w>
N o</w>
I stan
i f
äl testen</w>
Andro id-
Logi stik
Sti pen
ausgew ählte</w>
abet h</w>
Erkenn tnisse</w>
Kompon ist</w>
Qu ali
Zyp ern</w>
inspir iert</w>
Bouti que</w>
ä ße</w>
mo di
Buchst aben</w>
italien ische</w>
gi </w>
Milli on</w>
sw inger</w>
Facebo ok
rol len</w>
interess anten</w>
Wi-F i</w>
Studi os</w>
0 9
gef ickt</w>
geno mmen
le ger</w>
i gem</w>
Herr schaft</w>
E G</w>
o tive</w>
13 ,
künstler ischen</w>
F ris
R T
war ds</w>
Bo ok</w>
wei ch</w>
A K
sch lei
fest stellen</w>
Ver mei
D un
s ho
Tra ditionen</w>
c um
stitu ierte</w>
Kompon isten</w>
Medikam ent</w>
bet ont</w>
Hyp othe
Ge wür
unter st
verb and</w>
E po
Gra z</w>
Spe cial</w>
gesch ma
Zahl ungen</w>
Bu en
industri elle</w>
Klimawand el</w>
Zu frie
ko p</w>
Unter richt</w>
s ahen</w>
Um sätze</w>
af t</w>
it er</w>
Am ts
iz iert</w>
z e-
mitglie d</w>
K ette</w>
po s
Be frei
schle chte</w>
integr ieren</w>
An geln</w>
preis werten</w>
Ab sicht</w>
clu b</w>
Fing er</w>
Regi me</w>
Ein gabe</w>
A K</w>
Be et
Stra hl
ER I
energ ie</w>
tro cken
mark iert</w>
Bundes republik</w>
w ein</w>
eh ler</w>
be deuten</w>
aus führen</w>
ck и
Bi bliothe
Tablet ten</w>
Produkt beschreibung</w>
G aller
über tragung</w>
4 00
Hil f
di on</w>
C am</w>
Re co
Trans late</w>
t ing</w>
ver mutlich</w>
ex -
G at
Ar men</w>
{ </w>
} </w>
Registr y-
Nach fol
ho ff
gebro chen</w>
teil ten</w>
Ein blick</w>
4 9
e. V.</w>
EL L
Konfer enzen</w>
Max-Plan ck-
bu l</w>
Sch ied
Z om
Jahr est
tei </w>
Samm lungen</w>
ger inger</w>
Ru bri
zu ständig</w>
beschäf tigen</w>
Wich tige</w>
B ag
K P
Vereinig ung</w>
än ge</w>
Hand ys</w>
Nicht -
Gong -Praktizier
tra f</w>
.0 4.
regelmäß ige</w>
einstall ieren</w>
fre u
bli cken</w>
ein st</w>
n r</w>
At om
Pak ete</w>
F r</w>
Hoch schulen</w>
S wimm
an schauen</w>
Glau be</w>
Ent deckung</w>
österreich ischen</w>
verur teilt</w>
rä t</w>
großar tige</w>
Ä u
do se</w>
faust fick</w>
En sem
Sch mi
. it</w>
T än
k rist
Er den</w>
→ </w>
r un
G il
Mül ler</w>
sp ät</w>
19 ,
Str ateg
C av
Re zen
str eng
Dat ein
l .</w>
č </w>
posi tion
In c</w>
ursprün gliche</w>
Ka iser</w>
k rise</w>
an gemeldet</w>
pflan zen</w>
l ehen</w>
Li mited</w>
V E</w>
N ep
strateg ischen</w>
8 3</w>
for mieren</w>
i sse</w>
bra chten</w>
Gläub igen</w>
Profession al</w>
Flor ida</w>
t al
Fla sh</w>
Lein wand</w>
zimm er
Bo ots</w>
kl er</w>
Schw ä
ech ter</w>
Ra dio
verlei hen</w>
kommunik ation</w>
Lauf zeit</w>
Bar mherz
J ur
Stru ktur
P ant
Q R</w>
Alter s
Inspi ration</w>
ge folgt</w>
Zimm er-
bereit gestellt</w>
h ie
ein verstanden</w>
at ra
Sün den</w>
ul l
glän z
zu laden</w>
K eller</w>
-P a
Semin ar</w>
ph il
et hn
m ie</w>
g rupp
eindeu tig</w>
in ischen</w>
Pf ar
ich erung</w>
ar ität</w>
Eis en
Rä umen</w>
bas ierten</w>
Ru h
M yst
k anische</w>
ber ater</w>
get ö
Klei der</w>
gal erie</w>
ion s</w>
Kon t
T um
a j
.02. 2019</w>
v .
ge wissen</w>
ta schen</w>
An zei
Künst lern</w>
ge ssen</w>
v gl.</w>
lu ft</w>
zw anzig</w>
d ischer</w>
Bä umen</w>
wirt schafts
höch st
Inst and
errei chte</w>
Sol ar</w>
G ang</w>
Z ir
ver suchte</w>
Bud get</w>
Kon sequ
Program mier
Mitt eln</w>
-Sterne- Hotel</w>
A y
D olo
5 ,00</w>
Diagno se</w>
Vo gel
bie gen</w>
Bem erk
min i</w>
Mon te
st ar</w>
Zeit plan</w>
Men u</w>
niedr ig
Zusätz liche</w>
sta te</w>
ie geln</w>
An g
H itze</w>
Ged äch
Studen t</w>
D .</w>
7 6
SA P</w>
pol i
pier cing</w>
I F
Orch est
E wi
. info</w>
sch loss</w>
Me d
Boot s
b enden</w>
Wol ken</w>
Russ isch</w>
Unterneh mer</w>
50 -
G lu
an kommen</w>
s ätzen</w>
rie sige</w>
be dürf
F i</w>
Vi p
druck en.
Beschäf tigung</w>
Schwe stern</w>
Phot o</w>
auf bau</w>
verwen dete</w>
zeichn eten</w>
regelmäß igen</w>
h ellen</w>
ger te</w>
al e
on ne</w>
No ten</w>
Pflege produkte</w>
N ase</w>
sch me
Bar bar
Pen is</w>
Ac r
Angeb ot
op ol
Aus gangs
o ss
auf re
Budd h
fer ner</w>
hier zu</w>
M ale</w>
ot te</w>
O ce
Sor ge</w>
Mei len</w>
Mitglied schaft</w>
A ar
neg ative</w>
Original sprache</w>
eigen schaften</w>
schre ck
Innen hof</w>
ec u
Vergnü gen</w>
nachhal tig</w>
19 .
p as
engl ischen</w>
länger e</w>
Süda merika</w>
wa schen</w>
EM A</w>
künf tig</w>
Luft post</w>
Clou d-
ier e
an gt</w>
D on</w>
Ed in
virtu ellen</w>
Kan äle</w>
ron ic</w>
ver samm
spä ten</w>
ein führen</w>
g ast
Fü lle</w>
anwen dungen</w>
an o
lass ungen</w>
Mig ration</w>
fer tigung</w>
Vermö gens
an gewand
o ter</w>
wich tiges</w>
gen -
B oh
üb lichen</w>
R .</w>
h äusern</w>
Sp or
jähr iges</w>
ign or
In spe
Daf a</w>
h ielten</w>
Go vern
Enter tain
Gespräch spartner</w>
Verbin dungs
E he</w>
Diagra mm</w>
kommun izieren</w>
L anz
ier bar</w>
Schwanger schaft</w>
Sol idar
F ischer</w>
Indon esien</w>
tatsäch lichen</w>
azz o</w>
techn isch</w>
wick lung</w>
am ent</w>
Ba den-
k ord
höch ster</w>
besonder er</w>
räu ße</w>
de mon
Train ings
emo tion
gest euert</w>
Pa ge</w>
g ischen</w>
c amp
äl tere</w>
o on</w>
Bur g
Lei ch
S kla
pri m
Gefr ier
be dient</w>
schei be</w>
ress ion</w>
Win kel</w>
Sour ce</w>
spü ler</w>
Av is</w>
Zur ück
ta ct</w>
r ut
Elekt ri
eh l</w>
A 1</w>
mm ert</w>
Sim ul
ger e</w>
Wohn -</w>
gewähr t</w>
Hüt te</w>
F on
Im peri
ge ordnet</w>
lie s</w>
Ku pfer</w>
Wor l
Pauschal reisen</w>
mö chtest</w>
Pla ya</w>
Groß teil</w>
Le on
fa .com</w>
Ges ichts
Rechn er</w>
einz eln</w>
Hoch zeits
st ap
T o</w>
Wen iger</w>
be hei
ti sch
D EN</w>
gef asst</w>
langfri stige</w>
Umgeb ungen</w>
Mittelme er</w>
az itäten</w>
Verk nüpf
verl or
sto ppen</w>
Typ en</w>
sch iff
Sprech er</w>
Verfüg bar
Gebäu de
Mo sa
vorher sage</w>
kor ea</w>
welt weite</w>
it o</w>
Bi d</w>
Applik ationen</w>
Er leben</w>
15 .
an teil</w>
So wohl</w>
anc ed</w>
De k
ing u
lat or</w>
St ä
kleb er</w>
Pau lus</w>
Kart on</w>
Ad obe</w>
et c</w>
Such maschine</w>
Grö sse</w>
unter liegen</w>
ed s</w>
S R
m ungs
e dia</w>
überra scht</w>
sch icht</w>
geleg ten</w>
-K om
Toil etten
klein eren</w>
Wirk samkeit</w>
Mal a
B und</w>
Tra dition
ema il</w>
An fahrt</w>
So mm
Isla m</w>
ess elt</w>
Behin derten
auslän dischen</w>
Offen barung</w>
haus en</w>
Schauspiel er</w>
gefähr lich</w>
Hon g
medi a</w>
Ex -
Gra mm</w>
Prof is</w>
ac o</w>
identifiz iert</w>
s ieb
Sens or</w>
P ad
tig ungs
Zwei ten</w>
Fahr räder</w>
Best s
Wal ter</w>
zeit raum</w>
typ isch</w>
Du p
Tro ck
emp el</w>
flie ßt</w>
Gre en
agem ents</w>
Kompati bilität</w>
Qu ell
ich ert</w>
am ateur</w>
si sten
V ien
Re spekt</w>
ens ilien</w>
Flirtso fa.com</w>
Eta gen</w>
H R</w>
bring ung</w>
grundle genden</w>
re al</w>
F eu
Ger man</w>
mas ke</w>
13 .
Qu e
Ka mmer</w>
Aktu ell</w>
Sch ien
Fig uren</w>
i fikation</w>
um t</w>
dunk el
Plat ten</w>
7 3</w>
Über setzt</w>
gest or
erweiter te</w>
Che f</w>
Prinzess in</w>
d os</w>
ord nen</w>
ausgew o
bi bliothek</w>
konta kt</w>
O P
ei ra</w>
Vol kes</w>
ver sicher
ok e</w>
Be zahlung</w>
r unde</w>
er mu
Hon duras</w>
ra y</w>
Develop ment</w>
wieder herstellen</w>
s e-
schle ch
Hand eln</w>
3 60</w>
Sor tieren</w>
belieb igen</w>
E ck
Mod el</w>
Roh stoffe</w>
ich tungen</w>
mati sche</w>
We cker</w>
we sten</w>
la st</w>
Infe ktion</w>
aus rüstung</w>
Re por
E con
Är m
1 .000</w>
Barmherz igkeit</w>
schlu g</w>
Be achten</w>
s om
schw ach</w>
Tra vel</w>
H .</w>
hin aus
virtu elle</w>
Siz e</w>
gesch äft
Werkt age</w>
T T
ko chen</w>
Strom versorgung</w>
B S</w>
I t</w>
14 .
lei hen</w>
fort sch
se arch
Gen au</w>
defin ierten</w>
Prof ile</w>
ste cken</w>
modern es</w>
Fo od</w>
gener iert</w>
br e</w>
Her vor
zw in
automati schen</w>
Sp in
sph är
Rh ein
re spe
Kong ress</w>
modu l
fest iv
t ent
g lat
Bar o
bew ohn
mat t</w>
† </w>
Frie drich</w>
be deckt</w>
Kan arische</w>
Flücht linge</w>
zz gl.
konstru ktion</w>
itu ation</w>
erstre ckt</w>
kun st
M ON
Bedürf nissen</w>
aktiv itäten</w>
lo ser</w>
1 1,
Vip Tube</w>
ange t
bege gnen</w>
Ver größ
MI ET
8 4</w>
pro zess</w>
w n</w>
wieder holt</w>
Ku pfer
enti n</w>
S la
E .</w>
mei stens</w>
Sich erung</w>
Ort hodoxe</w>
Ab schluss
ckи й</w>
Ab stimmung</w>
CH T</w>
Gesch ätz
strateg ische</w>
Mehr ere</w>
Durchschnitt l</w>
de .
Hand lungen</w>
Drit tel</w>
er baut</w>
v ing</w>
notwen dige</w>
Verletz ung</w>
Pe ti
Pro c
St op</w>
Control ler</w>
ste te</w>
N ick
H als</w>
den d</w>
E volution</w>
soft ware</w>
M üh
Marok ko</w>
M ent
überra sch
Flä chen</w>
it ter
bestimm ungen</w>
Vor träge</w>
M ut
R hyth
abil ität</w>
k te
Sal ern
Vis a</w>
elegan t</w>
4 3
Stoff wechsel</w>
anges ichts</w>
Besonder heiten</w>
Rech ts</w>
kommen s</w>
auf blas
Got tes
Kat ze</w>
Mr d.</w>
Menschen rechts
Schlu ss
Sch ritten</w>
Istan bul</w>
g keit</w>
Dynami k</w>
un den
ã o</w>
Dre ss</w>
R S
p a</w>
bet reiben</w>
ri t</w>
Pe king</w>
Sh are</w>
A x
Sp orts</w>
geno ssen</w>
Proper ties</w>
m os</w>
k ran
DS GVO</w>
imp lem
pot enti
lok aler</w>
ier ung
Ge be
ges ichert</w>
Protok oll</w>
Ausflu gs
dauer haft</w>
zess es</w>
Geschirr spüler</w>
drin gen</w>
Diskuss ionen</w>
man agement
Hochwer tige</w>
V ier</w>
fahr t
gesp er
ver dient</w>
tis h</w>
B art
Mi o</w>
Energie effizienz</w>
o ur</w>
ön e</w>
metho de</w>
Ver z
end ungen</w>
behör den</w>
beschleun igen</w>
Gol den</w>
E Z
Victor ia</w>
engl isch</w>
lich ste</w>
Er w
Ar c
aufbewahr ung</w>
Mar ie</w>
Arm ut</w>
n en
g ische</w>
Auf lage</w>
Süd ti
St eine</w>
P fe
Diam anten</w>
über ein
Kap ital</w>
Perspe ktiven</w>
Ehr e</w>
sp art
O ster
über mittelt</w>
ens ität</w>
Fertig ungs
c ome</w>
ma ster</w>
Bo x
O T</w>
Betriebss ystemen</w>
Un s</w>
vielfäl tigen</w>
Person en
af el</w>
ho ffe</w>
kir che</w>
L är
Zu gangs
al ist</w>
Ent stehung</w>
eri ums</w>
Vor stands
ein richtung</w>
Unabhän gigkeit</w>
verab schie
Fing er
Fass ung</w>
Hu a
Versicher ungs
9 00</w>
L T
di agno
Ad d-
sp lan
stän diger</w>
B ass
Gastr onomie</w>
yc ckий</w>
Aus einander
H O</w>
ab ol
Passag iere</w>
C T
S we
ver sen</w>
ü bt</w>
Lan ge</w>
aut or
P RE
ar es</w>
D ress
I ll
beru ht</w>
T y
B anner</w>
pass end</w>
Län der
navig ation</w>
J ohn
N eg
der er</w>
min e</w>
viel mehr</w>
la dy
hau pt
aufzu bauen</w>
Vo y
Einzel betten</w>
richt linien</w>
s em</w>
ad resse</w>
bar ungen</w>
grün de</w>
Auf tritt</w>
N ag
Edit or</w>
Stadt teil</w>
Häu fig</w>
äh nen</w>
-N r</w>
vor sichtig</w>
qu es</w>
steh end</w>
Erweiter ungen</w>
g rau
and -
fabri k</w>
Dar m
ier er</w>
su per
Sk i</w>
Kompet enzen</w>
gehol fen</w>
win kel</w>
unz ensiert</w>
Gal erien</w>
Lo ve</w>
Erwer b</w>
komplet ter</w>
türk ischen</w>
an ter</w>
8 5
K y
Nor m</w>
konkre te</w>
2- 3</w>
schrift lich</w>
de ckte</w>
auszu wählen</w>
b ahnen</w>
on e-
lauf end</w>
Kil ometern</w>
ben annt</w>
ati s
h elle</w>
ungsan frage</w>
Bel eg
8 1</w>
Ro che</w>
Aus schnitt</w>
R ad</w>
Kur s
Edin burgh</w>
separ ate</w>
verlei h</w>
be häl
Jo se
T urb
R y
Neu er</w>
Man che</w>
or d</w>
Pf ei
getö tet</w>
Neu ro
D -B
Kinder spiel
He alth</w>
sprach ige</w>
Ab fahrt</w>
F S
Er lau
russ ische</w>
er eien</w>
kön ne</w>
0 7
Währ ungs
Bli ck
N AT
Kat astrop
T weet</w>
g h
C ollege</w>
Gew ähr
son stige</w>
Subst anzen</w>
Band breite</w>
Aus übung</w>
L G</w>
Mini -
Erschein ungs
an geben</w>
Mu schi</w>
er mittelt</w>
Tro j
Spir itu
Ab deckung</w>
.0 8.
halt ens
Lamp e</w>
8 7</w>
Mo vs</w>
körper liche</w>
vor über
an ony
kor rig
berühm t</w>
bl em</w>
ens eite</w>
zu geben</w>
He ad
Angebo ten</w>
el i
stand ard</w>
bezo gene</w>
hier bei</w>
Viet nam</w>
Moun tain
folgen d</w>
Mar ine</w>
iti es</w>
Bas il
f .</w>
invest iert</w>
empf iehlt</w>
Nachrich ten
G abri
mi a</w>
Kosten freie</w>
zi a</w>
s is</w>
Air lines</w>
König in</w>
Amaz on</w>
R ing
M IN
en burg</w>
Hekt ar</w>
veröffentlich te</w>
hr t</w>
ie f</w>
kun ft
Mi x</w>
auf tritt</w>
Erinner ungen</w>
Schicks al</w>
Chic ago</w>
langfri stig</w>
geplan ten</w>
Program mierung</w>
ent zün
d eln</w>
Squ are</w>
mar ke</w>
ut en
z iel
komplet ten</w>
schwimm bad</w>
te am</w>
er ober
nor mal</w>
Aro ma</w>
Ma z
Se elen</w>
defin itiv</w>
Ein gabe
br ut
lau tet</w>
Liefer bar</w>
mom ent
G ö
vor ge
Wachst um
intensi ve</w>
M ön
A gr
origin al</w>
C ot
zei tigen</w>
O per</w>
Holida y</w>
unter künfte</w>
Mo dern</w>
Se kunde</w>
L ich
Die sel</w>
Dau er
zu gelassen</w>
er y</w>
angebot enen</w>
Aven ue</w>
verb lei
Buch ungs
Dem okra
Entfern t</w>
um rechnen</w>
I L
ss e
olo ge</w>
Tschech ische</w>
Kart off
e on</w>
geist ige</w>
Blumen st
An liegen</w>
Stär kung</w>
UR L</w>
mm el</w>
Su mme</w>
umfang reichen</w>
ar rang
lohn t</w>
Immobil ie</w>
no ch
Ar n
N ichts</w>
Sch il
Salern o</w>
je gliche</w>
on te</w>
ex o
Kün ste</w>
ruh ige</w>
Zeit schriften</w>
og el</w>
al itäten</w>
Eis en</w>
ber ry</w>
ov o</w>
En tz
schwar z
ch irur
Bewer bung</w>
un des</w>
Dri ve</w>
an fragen</w>
D P
E ast</w>
E V
h imm
Wart ungs
hor n</w>
Fel sen</w>
gegenwär tigen</w>
N ight</w>
stie f</w>
ac t</w>
ik anische</w>
zerstör en</w>
kön ig
se y</w>
Wer ten</w>
To ten</w>
Rechn ungs
ergän z
Star ten</w>
Geschir r</w>
wand eln</w>
gr unde</w>
S ER
bl es</w>
ge habt</w>
Fer r
Priv at</w>
k um</w>
La v
unter kunft</w>
Wil d</w>
erleich tert</w>
Hin zufügen</w>
effizi enten</w>
I hm</w>
Fr ist</w>
yo ur</w>
Dist anz</w>
Li qu
gew ählten</w>
ó </w>
Emp fin
P H
ba ck
Sign al</w>
In haber</w>
IT E</w>
Haupt bahnhof</w>
hinter lassen</w>
Ath en</w>
Jaz z</w>
Z wie
kop iert</w>
AR T</w>
Ö k
Merk zettel</w>
aut o
A ur
gemüt liche</w>
m om</w>
lich keits
verwand elt</w>
priv ater</w>
rat es</w>
Produkt s</w>
Zuschau er</w>
To uch</w>
Her ausge
O hren</w>
fru cht
Es stisch</w>
Mark us</w>
Sch wach
prü f
R elev
t euer</w>
ob s</w>
Brei t
stu fen</w>
Er halt</w>
Ab rah
K räu
Kontakt daten</w>
d ei</w>
schi ff</w>
verb ra
An th
b ig</w>
la gern</w>
ar -
ri a</w>
ler innen</w>
Redu zierung</w>
K it
Ru fen</w>
9 9
zurück setzen</w>
Bau ch
Glau b
L auf</w>
Vin tage</w>
Ge org</w>
relev ant</w>
behaup ten</w>
stan de</w>
R and
g han
ak ade
Ver gleiche</w>
Panor ama</w>
herunter zuladen</w>
Pau se</w>
Sch ichten</w>
mpf hose</w>
Caf és</w>
C up</w>
. Es</w>
effe ktive</w>
Reise führer</w>
Apost el</w>
Corpor ation</w>
ak ten</w>
un ehmen</w>
be arbeitung</w>
Ver ordnung</w>
Angele genheiten</w>
mutz ung</w>
Fron t
Geschätz ter</w>
ab end</w>
kan äle</w>
sph ase</w>
Re präsent
the se</w>
fiz ierung</w>
sicher stellen</w>
Austr al
Verpflich tung</w>
-Plat tform</w>
La gerung</w>
Tre ff
Golf platz</w>
sel e
sitz t</w>
Zei len</w>
A B</w>
best ens</w>
Kon st
or i</w>
P .
en der
kurz fri
Deutsch Englisch</w>
pp y</w>
Gastfreund schaft</w>
Imp lan
Dör fer</w>
Jos é</w>
m on</w>
Riv er</w>
M ut</w>
pro stituierte</w>
rech tlich</w>
M D
Fein de</w>
Zeu gnis</w>
We ck
Rie sen
Г </w>
ri c</w>
Region al
H it</w>
lady boy</w>
Bach el
W elle</w>
am o</w>
in halt</w>
Datei format</w>
Konfli kt</w>
Spezial ist</w>
Mehr wert
E H
z ern</w>
K IT</w>
mö bl
g ht</w>
überwin den</w>
gem ü
on en
Sch alter</w>
küh l
eins etz
en hagen</w>
anges ehene</w>
blau e</w>
ung -
schrei b
wach sende</w>
ver suche</w>
R SS</w>
rup tion</w>
relev ante</w>
best icht</w>
Schnitt stellen</w>
8 2</w>
umb ol
heb t</w>
Verbrau cher
L .</w>
Rad fahren</w>
Schöpf ung</w>
Zy klus</w>
z el</w>
Sp r
Schwei ß
no ten</w>
rö mischen</w>
RA M</w>
pro bieren</w>
bin sel</w>
dre h
feh ler
K M
Lap top</w>
Näch ste</w>
R ico</w>
2 .0
gi ene</w>
15 ,
L ett
fre d</w>
Sch äd
Eink auf</w>
Stell ung</w>
o u</w>
G lanz</w>
Al gorith
R ak
g ir
R ele
Desig ner
Bä der</w>
japan ischen</w>
PD F-
nutz ung</w>
D ank
Fru cht</w>
Train er</w>
gän gigen</w>
R on
Cannab is</w>
frei es</w>
pflan z
f onds</w>
an wenden</w>
Ski gebiet</w>
Lit auen</w>
zeh n
An kün
eh e</w>
unter halb</w>
Höhep unkt</w>
Pol icy</w>
än e</w>
Künstler s</w>
Al ar
zz le</w>
erh eben</w>
Pal ast</w>
Zentr en</w>
stre ben</w>
Engl ish
C ali
tra ges</w>
Glückssp iel</w>
stab il</w>
Ver suche</w>
an gelegt</w>
d licher</w>
in tu
L aus
emper atur</w>
gesch afft</w>
H all</w>
Instru ment
sü ßen</w>
Hö hen
J ury</w>
Kir chen
schmer z
a ktionen</w>
Sor ten</w>
H umbol
Blumen lieferung</w>
tik a</w>
Sch ir
Vorsitz ender</w>
c at
An wesenheit</w>
bl enden</w>
Get rei
diesel be</w>
ann i</w>
techn ischer</w>
Auf wand</w>
plat ziert</w>
personenbezo gener</w>
fa ktor</w>
drin gend</w>
ro lle</w>
L KW</w>
Vor schau
Ket one</w>
Je an</w>
fahr ts
To aster</w>
Diabe tes</w>
Publi c</w>
M oh
plan ung</w>
be absich
Kon gress
Sh i
Belast ung</w>
C AR
Invest ition</w>
or ange</w>
Lit h
Prüf ungs
aus t</w>
konver tiert</w>
K lang</w>
Ges ang</w>
son stigen</w>
stra hlung</w>
da hin</w>
fo x</w>
es a</w>
Gleich gewicht</w>
ge ts</w>
S N
di ffer
Reise ziele</w>
Fru cht
er ho
wes halb</w>
Rat geber</w>
st öß
mittl ere</w>
gesch la
-F la
schw ing
z ität</w>
zusammen zu
Proz e
1 10</w>
J P
zu grunde</w>
3. 0</w>
Ar ti
Industr y</w>
si ve</w>
R ett
Tra ck</w>
ler in</w>
I o
Fö der
führ ungs
Ju an</w>
geben heiten</w>
Flüss igkeit</w>
erneu ert</w>
k art
Erfol ge</w>
l ischen</w>
r einen</w>
CO M</w>
Forsch ungsproje
vi brator</w>
kompati blen</w>
Pro vi
R ate</w>
gi er</w>
it y-
an tit
a iss
Ther ap
effizi enter</w>
ori al</w>
C oll
öff el</w>
H D-
Besch ichtung</w>
tr y</w>
Kno chen</w>
Bi om
An schließend</w>
ak et</w>
Versicher ungen</w>
Fash ion</w>
Tenn is
ein erseits</w>
Er fassung</w>
h üt
18 0</w>
zei </w>
T U</w>
U P</w>
jüng sten</w>
aktu alisierte</w>
ot el</w>
ss ysteme</w>
Tai wan</w>
Zu ge</w>
Hol en</w>
S wit
P as
-Symb ol</w>
In betrieb
Vertrieb s
Nied lich</w>
gel ungen</w>
h ler</w>
Dokum enten</w>
fla sche</w>
Bro ker</w>
Fre uen</w>
produ kt</w>
über springen</w>
te stens</w>
Bisch of</w>
en k</w>
pp lung</w>
Rac ing</w>
D einer</w>
Ex ecu
Pro ph
no te</w>
Vor lage</w>
Registr ierungs
Mus li
Tastat ur</w>
gewand elt</w>
sicher er</w>
Fen ster
Le hren</w>
reich hal
versor gt</w>
finanz iert</w>
Cor n
z hou</w>
Shar e
En ts
wechs lungs
16 0</w>
begrü ßen</w>
Mini ster</w>
Vorder grund</w>
u le</w>
Th is</w>
Implem entierung</w>
Kat zen</w>
Al ben</w>
dunk len</w>
e c</w>
entscheiden de</w>
R ut
ck et</w>
d or</w>
Ma ison</w>
H ung
j ur
Drit ter</w>
gen auer</w>
Dolo mi
verpa ckt</w>
Dis co
ser vic
gef esselt</w>
Be arbeiten</w>
hervorra genden</w>
Be sten</w>
Di cke</w>
Phil i
spru chs
ern st</w>
S ah
Au fer
P P
Er stellt</w>
Gr unde</w>
s and
dig ten</w>
Ch </w>
ung arisch</w>
Auf bewahr
gel ände</w>
it y
Super ior</w>
dra ht
Kraft stoff
vorher ige</w>
p il
-F ehler</w>
anzu passen</w>
Chemi kalien</w>
eg el</w>
Alex and
In de
A mi
R av
kenn tnisse</w>
herauszu finden</w>
ar ote</w>
einger eicht</w>
Heil ig
vermie ten</w>
Einsch ränkungen</w>
Harmon ie</w>
mel dungen</w>
w ol
geeign eten</w>
Max i
Stu fen</w>
an gebracht</w>
Ein t
Miss brauch</w>
a x</w>
sinn voll</w>
so for
fa c
ein drucks
Über trag
Verwand te</w>
form ati
verwal tet</w>
men gen</w>
Posi tion
Halb jahr</w>
Vil lage</w>
le ck
ro w</w>
Zufrie denheit</w>
J ü
Bab ys</w>
aufge führten</w>
erk rank
ig ungs
beg inn</w>
ka sten</w>
De ck
En zy
Liter atur
Verantwort lichen</w>
König s</w>
Monit or</w>
Benutzern ame</w>
von einander</w>
hoch schule</w>
K leb
archite kt
plan t</w>
T T</w>
Akt ie</w>
Pol iti
s äu
Zw angs
Exp lo
Cy ber
wunder bar</w>
our ce</w>
Hervor ra
S MS</w>
frei wil
k alt</w>
zeu gs</w>
v .</w>
ul ieren</w>
yo u</w>
J am
Pet ers
Nachbar n</w>
su pp
autom aten</w>
De ckel</w>
da mal
Beh älter</w>
Er zeug
B B
a kt
Zun ächst</w>
Stör ungen</w>
gesch ätzt</w>
auf trag</w>
Wetter vorhersage</w>
D epar
El is
spann ende</w>
T H</w>
haus gem
lauf ende</w>
entsch lossen</w>
m es
bedien ung</w>
as .net</w>
V I</w>
D W
Einzel heiten</w>
Ser ies</w>
br ett</w>
Sauber keit</w>
besu chten</w>
Buen os</w>
for ts
lei dung</w>
vor lagen</w>
ver ließ</w>
emp l
D K
M AN
gestor ben</w>
Wel ten</w>
Son stige</w>
st reifen</w>
konkre ten</w>
Outdo or</w>
Ent spannen</w>
mech anischen</w>
son sten</w>
T räger</w>
unmittel barer</w>
Teil nehmer
en er
0 1.0
Z ie
M R
t tem
Chines isch</w>
Panoram ab
Gast geber</w>
‑ </w>
enn is</w>
Ver haltens
Mot to</w>
log in</w>
on ia</w>
B ier
Ar m</w>
U R</w>
R og
mati schen</w>
g her
E du
Abhän gigkeit</w>
n eben
Ar ts</w>
Ep is
0 6
Verbin d
Komp lex</w>
Lan de</w>
us h
Wi Fi</w>
Par all
An ten
Portug u
ord nungs
komp liziert</w>
utu be</w>
Ref lex
Ma de</w>
grö ßen</w>
Erkenn tnis</w>
Extra </w>
Wa ff
S ier
hand el
Qualität ss
star ker</w>
Plat z
medit erran
maxim alen</w>
e dition</w>
verein bart</w>
befrie dig
St ationen</w>
J ähr
E ur
genie ßt</w>
transpar ent</w>
.0 7.
ge ko
jähr lichen</w>
günst igste</w>
n ennt</w>
ch em
künstler ische</w>
erfahr enen</w>
ad ing</w>
p -
Hal binsel</w>
Bas ierend</w>
i fest
gebo ten</w>
P ass</w>
Ar rangem
auf gerufen</w>
to t</w>
sin g</w>
Co mi
Teil nehmern</w>
l enk
reib ungs
geh ens
S ul
nör dlichen</w>
gef ei
Ko mmen</w>
Krie ges</w>
sil ber</w>
mor gens</w>
di sten</w>
ing .com</w>
mot or
tit el</w>
b ot
erleb nis</w>
ent are</w>
ild ing</w>
A dam</w>
S L
d bar</w>
ann ehmen</w>
S AT
her stell
Cre w</w>
Spiel ern</w>
Devis en
dig ungen</w>
Blu e
Proz ent
d un
F utter</w>
Zäh ne</w>
tre u</w>
Fil men</w>
äl teste</w>
in kl.
Arbeitsp lätze</w>
Cam p</w>
Spei se
Schn elle</w>
18 -
ru män
ter er</w>
bo gen</w>
Scre ens
Verb und
Pressemit teilungen</w>
kon fron
Oze an</w>
fer tig
-Sh op</w>
Je ans</w>
Rom a</w>
Lieb haber</w>
hol d</w>
op e</w>
Sch luss</w>
Pfer de</w>
g ier
u l</w>
des ign
Pro be</w>
V ill
ti se</w>
14 0</w>
-B l
Schwar z
Auss age</w>
Automati sche</w>
be völk
Swimm ing
Tab let</w>
st ill
ausreich ende</w>
Gesund heit
personenbezo gene</w>
Ein flu
gelist et</w>
Re st
Ho f
lei t
N az
Wal zen</w>
Fa ir
er zeu
zy klus</w>
Aus bildungs
Mobil fun
Mar co</w>
om o</w>
AP I</w>
W ES
R U
Motor boot</w>
mit zu
pla y
Al mer
Bests eller</w>
brei tes</w>
Clu bs</w>
Sor g
leu chten</w>
b -
Air es</w>
er we
wohn ern</w>
Kre bs</w>
re alisieren</w>
Am ate
Stero id</w>
Gen e
16 ,
im a</w>
Kop ieren</w>
9. 00</w>
iti s</w>
t oll
Öff nung</w>
Ab weich
C are</w>
Schu h
A min
Ru ck
si dent
Weiter bildung</w>
da g
sprü chen</w>
Sta ates</w>
Ver trag
d ieren</w>
Lanz arote</w>
Af ghan
sprech end</w>
Ver sicherung</w>
Z Movs</w>
wer s</w>
Behand lungen</w>
separ aten</w>
M .
a den
Herr en
ult at</w>
Ad vent
t ollen</w>
Hall en
win dig
L i</w>
statt findet</w>
Op tik</w>
f ur</w>
tei ligen</w>
b aus</w>
wirtschaft lich</w>
Schne e
Vor gaben</w>
Rei sender</w>
Ver stand</w>
M L-
äuß eren</w>
stre cke</w>
mm et
Est land</w>
An forderung</w>
Fi x
Interess antes</w>
L is
ge geben
Geburt stag
Amerik aner</w>
lich ung</w>
Sch lä
Aus wär
gel tenden</w>
gegenwär tig</w>
Automatis ierung</w>
N ot</w>
Ba den</w>
in fe
op tische</w>
c ie
niedr ige</w>
re alen</w>
c le
Rück gang</w>
ange kündigt</w>
dien te</w>
J ungs</w>
fr ar
15 0
Proz essen</w>
lo ck
E D</w>
k ey</w>
syn the
A US
Stadt plan</w>
T räume</w>
Ro oms</w>
Multi -
unter zeichnet</w>
i i</w>
stu die</w>
Be ste
sch ale</w>
Rei chtum</w>
R un
Ne der
da ssel
Ein kommen</w>
Be ding
port ug
ser ie</w>
So fern</w>
Aus gewählte</w>
ab schluss</w>
assozi iert</w>
M uss</w>
exp lo
Über gang</w>
Mikro f
Co ur
D i</w>
Santi ago</w>
Le c
M ore</w>
soll st</w>
Jahres zeit</w>
geb e</w>
fra gten</w>
Hua wei</w>
16 .
stör ungen</w>
Dar lehen</w>
rü ckt</w>
parall el</w>
f tig</w>
Sim on</w>
sor ge</w>
k einem</w>
Fir st</w>
18 .
europä ischer</w>
vielfäl tige</w>
gemüt lichen</w>
sch l
F et
wun sch</w>
10 .000</w>
Materi als</w>
tru g</w>
Digit ale</w>
erfol gte</w>
Kön ige</w>
fran ç
Lo g</w>
z onen</w>
fol gten</w>
stud ieren</w>
Ja cke</w>
ent um</w>
Schlag wörter</w>
Blueto oth</w>
Neu este</w>
or ium</w>
Ber ech
flot ter</w>
jewei lige</w>
Bau teile</w>
kre ative</w>
Stellen angebote</w>
lo gi
- I
Pan ama</w>
mal er</w>
Di anab
verbun dene</w>
F onds</w>
Dos ierung</w>
eingerah mte</w>
betroff ene</w>
Staats an
Al bert</w>
Christop h</w>
Kinderspiel platz</w>
ph ase</w>
sta mm
B auch</w>
ander erseits</w>
stat ten</w>
m ache</w>
W A
Prin t</w>
ger en</w>
vor an</w>
G ang
Luft han
Sti ll
ut ensilien</w>
Y -
gu tem</w>
Fo x</w>
Distribu tion</w>
F ut
Dos is</w>
Vall ey</w>
gewöhn lichen</w>
wün sche</w>
2 1.
Schla f</w>
Stell ung
Maß stab</w>
Klin ik</w>
Er b
Geh alt</w>
Z i
Le er
Hei lung</w>
Nor malerweise</w>
Net to
l ation</w>
unerwünsch te</w>
Vor haben</w>
Ak zep
In fin
hoh es</w>
land schaft</w>
ot -
F ie
v ard</w>
Bas ic</w>
E he
Verpflich tungen</w>
C M
Ma sturbation</w>
rat et</w>
ent f
hör er</w>
b örse</w>
Ma ps</w>
Wohn fläche</w>
F ab
DI E</w>
Jung frau</w>
Frie dens</w>
dassel be</w>
Ja ck</w>
Le v
best mögliche</w>
Er forder
star kes</w>
Museu ms</w>
Über gabe
so fa</w>
Rot ter
außergewöhn liche</w>
V al</w>
P ip
war me</w>
Star s</w>
Ter rit
b chen</w>
Vor stellungen</w>
Mer c
ß ig</w>
ag gress
ser ver</w>
D rin
dr ing
Aus wertung</w>
S ak
Sowj et
Priv acy</w>
ütz e</w>
gez ielt</w>
Hô tel</w>
Budd ha</w>
t eln</w>
verl auf</w>
mär kten</w>
ge ho
P ion
nation aler</w>
har ten</w>
0 3
stu dium</w>
20 .
Fa mily</w>
Ver kaufen</w>
La ck
An bau</w>
farb ige</w>
i ma
los zu
gewor fen</w>
f ast
Terra ssen</w>
Regiss eur</w>
Il lu
bri tische</w>
ge p
gan da</w>
Balear ische</w>
D av
adem y</w>
Größ te</w>
Ch il
reich sten</w>
ens werte</w>
ur s
b ler</w>
Con tin
ün kt
fa ktoren</w>
0 4
G h
ör per
Er zäh
ag nen</w>
Wissen schafts
über wachung</w>
ist isch</w>
-P ort
ch ing</w>
überw acht</w>
bestän dig</w>
H ast</w>
absol ute</w>
Aufsichts rat</w>
Omeg a</w>
Pol ar
d ierung</w>
cro ss
K lassen</w>
A er
exper im
10 00
kosten freien</w>
O v
Brau erei</w>
C en
zuverläss igen</w>
Sebast ian</w>
Serb ien</w>
Mak e-
sto ß</w>
un bekannt</w>
K A
Upgra de</w>
Lie chten
geh eim
stü ck
I A</w>
Regi ster</w>
ge form
R W
pun kt
For d</w>
ide alen</w>
ator ische</w>
M ir
r einig
gan zes</w>
e .</w>
u ver
P es
Brief marken</w>
La de</w>
Reg ie</w>
bel euch
3, 5</w>
D ichte</w>
abge stimmt</w>
ell em</w>
gleich ermaßen</w>
Ach se</w>
lie be
7 90</w>
Rom an</w>
Gir ls</w>
er öffnen</w>
Aro men</w>
Die sel
K lang
Aus führungen</w>
Jor dan</w>
Einf ach
17 .
geschlossen e</w>
Spe ed</w>
la ssen
Eig entlich</w>
Ta sten</w>
fort geschritten
be d
si st
erz ählte</w>
Dire ctory</w>
Sy d
man ager</w>
ander n</w>
si de</w>
H AN
Wirk ungen</w>
ug h</w>
Zu lassung</w>
der ten</w>
verfüg bare</w>
St d.</w>
DV D
Mater ie</w>
De f
Vor name</w>
vier er</w>
c ams</w>
Hand lungs
ge stern</w>
d om
Wert schöpf
Panoramab lick</w>
-B en
CO 2</w>
kt ors</w>
Medit ation</w>
Ro om</w>
qu ar
Haf en
ör tlichen</w>
Grund informationen</w>
W .</w>
di verse</w>
D ür
d ella</w>
leu chte</w>
W att</w>
Prior ität</w>
ges andt</w>
progra mmen</w>
verb or
Besch werden</w>
Hon ig</w>
heu tige</w>
CD s</w>
199 8</w>
Motiv </w>
pf el
g reg
Schul ungen</w>
Liz enzen</w>
Lei cht
iv er</w>
prä zis
r onen</w>
trock enen</w>
gere chte</w>
Brau n</w>
Me da
An k
Tre ppe</w>
Emo tionen</w>
Se kret
an fang</w>
R ho
geh or
kathol ischen</w>
M I</w>
Pun kt
art ment</w>
ent a</w>
ic -
Tau chen</w>
zuge ordnet</w>
L un
Ste cker</w>
Nachbar schaft</w>
Bo sn
Bet on
s af
wechs elt</w>
Ex position</w>
auf hin</w>
Autor ität</w>
Mar mor
Dest in
J O
unter bro
Gew ohn
Tool bar</w>
gesper rt</w>
radi k
j unger</w>
be ster</w>
al b
Trans form
and in
a ck</w>
beteil igten</w>
an wes
Pal azzo</w>
Reiß verschluss</w>
Regel ung</w>
Wider spruch</w>
Design -
spiel er</w>
Willi am</w>
Neu heiten</w>
Fin anzen</w>
Pra ha</w>
Cre me</w>
Ch ip</w>
eingerah mt</w>
ero tik</w>
am po
Ge eignet</w>
Joh ann
Kap seln</w>
F S</w>
vor schriften</w>
Ü er
ab wechslungs
An dr
at en
Ro u
W hat
3 50</w>
wieder hol
zeh nten</w>
wieder hergestellt</w>
d ü
Die go</w>
L ut
Tit el
Wür de</w>
C ri
Ren aiss
sel ts
M und
Fire fox</w>
Stau b
um gehen</w>
O stern</w>
fass ungs
mon t</w>
religiö se</w>
kre di
Vern etzung</w>
Bet ro
ph ot
gel ass
g ie
sa ß</w>
Tra gen</w>
beut el</w>
G T
üb lich</w>
P AR
Empf ehlen</w>
b dsm</w>
Lie der</w>
ent haltenen</w>
län gst</w>
Vi el</w>
auf gaben</w>
lo ckt</w>
M EN
anzu zeigen</w>
lan den</w>
mp </w>
Nach weis</w>
Künstler in</w>
O fen</w>
sex uelle</w>
win d</w>
beher ber
Zeit alter</w>
Mitt ler
Sz enen</w>
Jün ger</w>
qu ote</w>
wir ft</w>
Linked In</w>
ab sor
Brun nen</w>
wander n</w>
Interess en
t licher</w>
Ver ring
te ck
Flu ss
ab ger
Dire ct</w>
ov ol
P ist
K issen</w>
schwier igen</w>
Di ät
har te</w>
T oler
Auf stieg</w>
Ern st</w>
Sing le</w>
vor liegenden</w>
Analy se
Sch ein
Ein bau
Gar an
franç ais</w>
verbr ennen</w>
man uelle</w>
institu tion
bele gt</w>
be fin
E P</w>
Gepäck aufbewahrung</w>
vor sitz
hab en.
shop .de</w>
Extra s</w>
gel og
en tieren</w>
No te
Be aut
O ut</w>
nütz liche</w>
st räger</w>
Aktiv ierung</w>
et to</w>
Um wand
O ft</w>
Lo c
S ri</w>
kehr te</w>
sü dlich</w>
Sch wimmen</w>
dyna mische</w>
Barbar a</w>
Nik ol
bik ini</w>
Adv anced</w>
bekann testen</w>
Kap elle</w>
Konkurr enz</w>
War schau</w>
ill o</w>
Lo cation</w>
Schied s
Mi d
gesetz te</w>
Ira k</w>
Gro ss
So ci
fer ien</w>
D riv
irgend wie</w>
Tr ig
olog y</w>
Ein mal</w>
H as
vers enden</w>
wen de</w>
be hoben</w>
m .
Inter face</w>
erläu tert</w>
Ch ann
it ten
web site</w>
Volks wagen</w>
Car .com</w>
Institu tion</w>
Ost europa</w>
Be kleidung</w>
O k
B 2
reich s</w>
A z
ch tigen</w>
Über wach
en ne</w>
br illen</w>
Syn chron
Besonder e</w>
Latein amerika</w>
Ori entierung</w>
Datei -
B CO
re agiert</w>
6 00
Sti lle</w>
Berat ungs
Auf ruf</w>
betreff enden</w>
Sch ach
UN GEN</w>
Obje kten</w>
Tex til
auf gestellt</w>
M auer</w>
Mil f</w>
f und
m ut</w>
A mm
Kl aus</w>
H unger</w>
Ac ademy</w>
ungss ysteme</w>
Bes ei
S um
An bindung</w>
nahm ebüros</w>
Üer nahmebüros</w>
Mi c
sa al</w>
Wohl befinden</w>
gn is
M i</w>
For mate</w>
über nach
stechn ologie</w>
Ge ometrie</w>
kostenfrei em</w>
ökono mischen</w>
n m</w>
tä tigen</w>
ser fahr
kä mpft</w>
N ich
Se gen</w>
ste ten</w>
Pot s
gel ang</w>
Inbetrieb nahme</w>
Besch werde</w>
Ge gebenheiten</w>
flei sch</w>
0 3-
beru fen</w>
in fiziert</w>
G ürtel</w>
kul in
Lamp en</w>
ment al</w>
IN TER
vers and</w>
Tap eten</w>
her d</w>
wer fer</w>
Sau er
Lett land</w>
stra sse</w>
Transa ktion</w>
Kommunik ation
Log os</w>
Übergabe büro</w>
H L
i Tun
küh len</w>
N anny</w>
Wir el
Tr end
Lok ale</w>
über zeu
sk a
kö st
Plan et</w>
on er</w>
rit z</w>
ar o</w>
Dianab ol</w>
Rahmen bedingungen</w>
tie fer</w>
bo den
ben der</w>
am in
stat us</w>
em ents</w>
Conver ter</w>
sprach igen</w>
Schw ing
e .com</w>
Ein gangs
ti ppen</w>
ein satz</w>
i os</w>
Sch e
b ös
Journ alisten</w>
i que</w>
er te
alph abe
st ic</w>
bestimm ter</w>
an bietet</w>
met ter
Kat es
Ergän zungen</w>
Dienst leistung</w>
Dow n
Wall pap
bil lig</w>
Kates Tube</w>
ent ransfer</w>
ver trä
ra sch</w>
CO N
F F</w>
sp rin
ra mi
sch ten</w>
offen bart</w>
un sten</w>
heraus finden</w>
bet rug</w>
Rei ter</w>
Lt d.</w>
H alten</w>
inter pre
c ard</w>
Ö kon
Komplex ität</w>
N ig
Subst anz</w>
Install ations
d ort
I W
st ationen</w>
17 ,
Zentr ale</w>
fok uss
Bundes regierung</w>
wo che</w>
krist all
tre ff
con t
Res ultat</w>
l ische</w>
ver teilung</w>
fi x
Ver lei
li a</w>
an halt
12 5</w>
be seitigen</w>
War n
ge stütz
Tr ennung</w>
ser vier
Vor bereit
vers eh
la ger
TE L</w>
Lebens stil</w>
göt tlichen</w>
mod ell
or o</w>
Bri tish</w>
ord s</w>
w ehr</w>
Pier re</w>
Gesch rieben</w>
Herr lichkeit</w>
s ied
Bügel einrichtungen</w>
sp unkte</w>
anti ken</w>
B am
10 1</w>
Wh is
ge o
an fangen</w>
Bau ern</w>
Highl ight</w>
u k
politi scher</w>
ste tig</w>
ni gen</w>
vor geschlagen</w>
ern den</w>
orien tierte</w>
Prot ein</w>
hö fe</w>
Jahrhunder te</w>
Se ktion</w>
25 -
B ah
F ell
J ür
N ext</w>
te ch</w>
frei geschaltet</w>
B ing</w>
S og
ult ur
b ende</w>
In dem</w>
einfach es</w>
Schauspiel erin</w>
Beur teilung</w>
i vi
fest zu
BCO -R
H är
W an
U-B ahn
Verpack ungen</w>
renom mierten</w>
b ut</w>
Mon tage
en ke</w>
k alten</w>
Hy drau
Sex y</w>
ot her
0 4-
Aus flug</w>
BCO-R enta
BCO-Renta Car.com</w>
ü brigens</w>
N in
Z entrums</w>
R ic
H S</w>
fest legen</w>
Sil ver</w>
Tan k</w>
komp lex</w>
Sta te</w>
Mon tre
.0 .
Inform atik</w>
ati sch
v an
Klass iker</w>
Helm hol
re d</w>
tur m</w>
Le arn
rau ms</w>
empf ängt</w>
P ig
bet reibt</w>
jähr ig</w>
Transa ktionen</w>
Anmel de
Phän omen</w>
Gew äss
Erkrank ung</w>
Str änden</w>
Ev alu
behaup tet</w>
6 9
0, 5</w>
Wür ttem
ing ham</w>
ed -
Window s
sp lat
ger ei
Er haltung</w>
schie ßen</w>
hy dra
inter disziplin
Wahrschein lichkeit</w>
nu disten</w>
ver hei
om er</w>
br and
be trag</w>
geräumi gen</w>
Gi ov
Car bon</w>
Lufthan sa</w>
auf zunehmen</w>
Flash -
Ba ck</w>
zurück kehren</w>
T EN</w>
Bl ume</w>
ol is</w>
Ingenie ure</w>
C T</w>
bew äl
o .com</w>
Testoster on</w>
herkömm lichen</w>
Ur sprün
N ütz
EU RO
Ho se</w>
C agli
for um</w>
gegeben enfalls</w>
Kor ro
3 75</w>
Wer fen</w>
bedeut ende</w>
in ne</w>
N as
kommen tiert</w>
br icht</w>
Sk yp
event uell</w>
um gebung</w>
zi ges</w>
internation ales</w>
H äusern</w>
restauran t</w>
install ierte</w>
befest igt</w>
P it
gesund heit
Hil l</w>
Blü ten</w>
revolution äre</w>
Erfahr ungs
näh e</w>
hei ße</w>
Behand lungs
kon kurr
Daten banken</w>
Ge fahren</w>
G rau</w>
Bl um
m or</w>
stö bern</w>
Innov ations
ovol ta
wer tet</w>
kon sol
Semin are</w>
liz enz
Rotter dam</w>
c la
Co de
s bru
ab ends</w>
St ur
taus ende</w>
en dem</w>
ge trock
inst it
fot os</w>
ö cke</w>
D yna
vari ieren</w>
Hel sin
den t</w>
Band s</w>
Hand hab
Ar me</w>
Tschech ischen</w>
Quadrat meter</w>
dyna mischen</w>
Oliven öl</w>
du ld</w>
ph ar
auf nahmen</w>
Solidar ität</w>
brau ch
Übersetz er</w>
Uhr zeit</w>
Pul ver</w>
Exper tise</w>
ein sch
PV C</w>
S her
Groß es</w>
Verletz ungen</w>
lei d</w>
mi gen</w>
B B</w>
War m
ing er
Weiter empfehlen</w>
L om
bevorzu gen</w>
Speich erk
sin n</w>
an meldung</w>
m äler</w>
Fil ms</w>
streng ungen</w>
Pal mas</w>
effe ktiver</w>
S le
syn chron
Rei ter
Wich tig</w>
bezieh ung</w>
Mau ri
län dische</w>
Empf än
haf ter</w>
G S</w>
Segel boot</w>
pro ben</w>
Ten eri
An sätze</w>
einzigar tiges</w>
no t</w>
rech ter
Tro tzdem</w>
Be kämpfung</w>
f einen</w>
inn end</w>
Ver träge</w>
eigent liche</w>
Um stände</w>
kat oren</w>
ari at</w>
P ent
r und
Wik ip
ens or</w>
über wiegend</w>
sel b
T ER</w>
Sign al
Zeu gen</w>
itä r</w>
l ings
k reis
met ern</w>
la va</w>
v ieren</w>
Ressourc en
Flü gel</w>
fin n
2. 5</w>
P op</w>
wer tes</w>
Flugtick ets</w>
Konta ktiert</w>
ien ce</w>
gel ingt</w>
ran ten</w>
gemü tlich</w>
mäß igen</w>
s es
C a.</w>
dür fte</w>
r y
hum an
op fer</w>
ab les</w>
ah e</w>
Führ ungen</w>
G on
Produkt details</w>
Her d</w>
War nung</w>
Moder nis
Minist erium</w>
ge führte</w>
Männ lich</w>
vergröß ern</w>
F L
Aus wahl
Ver sammlung</w>
Reise ziel</w>
eur em</w>
Autom ation</w>
aus drucken</w>
Sp ur</w>
ar men</w>
k amera</w>
Trans fer
au str
Reinig ungs
h lt</w>
Befrei ung</w>
ein gebau
T asse</w>
Erfin dung</w>
Auff ass
Dipl om
Ant rieb</w>
gesellschaft liche</w>
gelog gt</w>
Net wor
Zu cker
Be au
letz ter</w>
H ow</w>
eist ungen</w>
mark ierten</w>
o f
ange kommen</w>
A da
Syd ney</w>
In frar
Höl le</w>
Ev ent
verbin dlich</w>
s ach
Arch ive</w>
fei er
Eli te</w>
Feb </w>
kri tischen</w>
IN E</w>
ä gyp
p on</w>
Commer ce</w>
Wes entlichen</w>
wa ys</w>
SPI EL</w>
rä gen</w>
Vor gang</w>
A ss</w>
ausgezeichn eten</w>
qu ad
Iden tifik
C ore</w>
Schri ften</w>
Co ver</w>
Pat ent</w>
Lie d</w>
sozi aler</w>
Umwelt schutz</w>
as ien</w>
Fla schen</w>
Schmu ck
ef eld</w>
är z
Ph asen</w>
Wert pap
be weisen</w>
Fe tisch</w>
SI M</w>
ö h
ut te</w>
verwand ten</w>
krä ften</w>
mol e
D B</w>
Be ss
offen bar</w>
kon tin
Fra ge
Ta gungs
Kor ruption</w>
b iert</w>
L il
unbegrenz te</w>
dig ungs
fern sehen</w>
D og
unter gebracht</w>
zeit -
nor weg
gän ger
D rücken</w>
Zahl reiche</w>
Lad y</w>
Vien na</w>
Wei le</w>
Deb atte</w>
Det e
Frankf ur
G ate
m n
bau te</w>
agent ur</w>
BI T</w>
F .</w>
hin weise</w>
sicht baren</w>
ni ca</w>
bezieh ungen</w>
it a
M o</w>
Inter aktion</w>
auss ieht</w>
Sch ott
Publik ation</w>
Sp y
Sti r
Sex u
Lo dge</w>
an .
hand gefertigt</w>
su </w>
Nic ol
j ak
D ort
außergewöhn lichen</w>
B ör
Stu hl
recht zeitig</w>
mehr erer</w>
ge fahren</w>
Ch ol
ans äss
Bekann t
Teneri fe</w>
Pla stik
zurückzu führen</w>
Rich tungen</w>
Gesamt bewertung</w>
Ger ü
leben dig</w>
roman tische</w>
spä testens</w>
Kopf schmerzen</w>
Sh op
Chin a.com</w>
Fe ste</w>
Stief el</w>
Tatto o</w>
an lässlich</w>
sta ge</w>
Karls ruhe</w>
fu hren</w>
Y ello
Frei burg</w>
Ab fall
Pf licht</w>
Sch wert</w>
Bab e</w>
Mehrwert steuer</w>
Fran zis
amer as</w>
Anwen d
Col umb
24 -
F E</w>
D utz
M aus
Yello China.com</w>
ruh iger</w>
Sim ulation</w>
Flu cht</w>
statt dessen</w>
Dunkel heit</w>
Wetter -
h al</w>
kostenlo ser</w>
klin gt</w>
ern annt</w>
Rä um
Prozess es</w>
b isch
w ünsch
hal be</w>
Appli cation</w>
St ron
Sier ra</w>
Langu age</w>
veröffentlich ten</w>
Sna cks</w>
vor gang</w>
M üt
mein t</w>
eh nt</w>
St rau
Er klär
Geheim nisse</w>
Oper ationen</w>
Be wuß
BES T</w>
a ir
ste ck
Einzel zimmer</w>
H alt
zö gern</w>
onn a</w>
stabil e</w>
Schlag worte</w>
D om</w>
Gut es</w>
Schul d</w>
T ower</w>
Dra ht
w ährung</w>
ik i</w>
tern er</w>
at u
ir dischen</w>
Por tra
Verfügbar keiten</w>
Hel den</w>
ver mögen</w>
G rau
Vorder seite</w>
Proven ce</w>
ti s-
Nach fragen</w>
vorauss ichtlich</w>
j ob
ge druck
J og
hül le</w>
S inn
Wass erk
Kabel -TV</w>
P illen</w>
Heidel berg</w>
ri er</w>
einge bet
letz tlich</w>
eingesch ränkt</w>
st unde</w>
So cken</w>
TER N</w>
auslän dische</w>
14 -
wei ßt</w>
experim ent
spei cher</w>
sch ick
komm entare</w>
er be</w>
Jun ior</w>
or m</w>
F A</w>
Z ag
un dern</w>
herr liche</w>
u z
T ob
afri kanischen</w>
W O
u d
ge beten</w>
männ lichen</w>
nach folgenden</w>
app ar
s m
schlu ß</w>
Prüf ungen</w>
c en
Inn sbru
dort hin</w>
x x
Haus halt</w>
ro -
arab isch</w>
un det</w>
z iger</w>
Al ten</w>
Fol genden</w>
Mar c
M B
Sen dung</w>
P um
imm er
Ausland s
bü ros</w>
ab or
Artikel nr</w>
an des</w>
Gu ang
O h</w>
pu zzle</w>
r ator</w>
Produkt informationen</w>
t an</w>
Herz ens</w>
B utton</w>
Schla cht</w>
Zertifik ate</w>
au se</w>
schli mm
Mahl zeit</w>
ver passen</w>
richt linie</w>
Relig ionen</w>
re staur
staat liche</w>
4 6
sam t</w>
for mate</w>
erh ielten</w>
grund lage</w>
ill s</w>
Recyc ling</w>
w ähl
Resul tate</w>
Ab gabe</w>
Layo ut</w>
teil zunehmen</w>
Ver fassung</w>
arab ischen</w>
zwin gend</w>
männ lich</w>
Z onen</w>
Freund schaft</w>
Spe ci
Tages zei
Vorjahr es
k om</w>
S ien
ger ing</w>
an stelle</w>
Leb er</w>
rän ke</w>
Ver anda</w>
L D</w>
Stich wort</w>
Ex </w>
lie f</w>
vers and
. eu</w>
Werk statt</w>
Auf träge</w>
Einz igar
gener ieren</w>
Sau erstoff</w>
schen ken</w>
begri ff</w>
S ohn
op tischen</w>
Cat al
bro v
Alkoh ol
Aug ust
i ums</w>
pal ästinens
Sp iegel
z entrums</w>
Inter views</w>
altern ative</w>
Herausge ber</w>
● </w>
Sonnen untergang</w>
fa den</w>
Execu tive</w>
Super markt</w>
th ro
po t</w>
Schwar ze</w>
Sp ots</w>
geb ühr
Fi x</w>
Mei len
br un
Jose f</w>
ein g</w>
ss a</w>
leu cht
geh and
Er nte</w>
sy l
Li sten</w>
K rei
ist .
griff s
Wass ers</w>
Book ing</w>
konfigur ieren</w>
Univers al</w>
Galler y</w>
gän ger</w>
F an</w>
To des</w>
über sch
M P</w>
hand lungen</w>
er mitteln</w>
Fotograf ien</w>
vi rus</w>
an gefangen</w>
-P art
Tra der</w>
Zu stell
ru hen</w>
vers ohlen</w>
demon str
Lö schung</w>
eng ag
hal ben</w>
ber echn
kr ön
Schrau ben</w>
Sch metter
beherber gt</w>
Tunn el</w>
Int ensität</w>
Hunder te</w>
T auf
Ludwi g</w>
Gir ona</w>
po int</w>
Abonn ieren</w>
ti sh
ad minist
all y</w>
c in
fei ert</w>
Flei sch
spar t</w>
Fü ßen</w>
Bu sse</w>
Kunst werke</w>
F ul
En dr
engl ische</w>
w illen</w>
Se qu
d ner</w>
Schau m
ik -
ku lissen</w>
ot herapie</w>
-R icht
ć </w>
Näch ster</w>
Tenn is</w>
B örse</w>
ts el</w>
lu g
et ti</w>
In tensi
Reis ende</w>
Relev anz</w>
Imp ort</w>
Gum mi</w>
Datei erweiter
ATI ON
erhöh ten</w>
v in</w>
atra ve
aufge fordert</w>
ab stra
Anim ation</w>
w alt
Z elt</w>
N it
zu ständigen</w>
behäl ter</w>
far ben
Car ol
kan ad
Kontin ent</w>
Ro te</w>
kl et
ß te</w>
Agen ten</w>
inter n</w>
Jag d</w>
nah t
ho st
in as.net</w>
verlie hen</w>
í n</w>
Entschei dungs
Altern ativen</w>
g lü
Depar tement</w>
merk male</w>
öst lich</w>
tion -
h ung
to il
j enseits</w>
Föder ation</w>
getr enn
fiz ieren</w>
Ho sp
ra b
R asse</w>
5 6
-Sti ftung</w>
h d</w>
S etzen</w>
Mar c</w>
ol i
s eu
lin k</w>
noch mals</w>
Du brov
Di vision</w>
Kat amar
wunder baren</w>
Hong kon
n ein</w>
Gestal t</w>
Ber ühr
w ähr
Ster nen</w>
Portugu ê
fest igkeit</w>
Bouti qu
Wörter buch</w>
Swimming pool</w>
Kno ten</w>
komfort ablen</w>
Gen uss</w>
t an
Ham burger</w>
wen dungen</w>
ir ts</w>
Lei b
Comp li
Ski p</w>
entschei det</w>
rei f
z essen</w>
Kar ne
Registry- Einträge</w>
attra ktive</w>
Riv iera</w>
w ell</w>
2 2.
ab kommen</w>
Entz ün
tu ch</w>
anzu sehen</w>
Fest ung</w>
wür gen</w>
bestä tigung</w>
Wat ch</w>
versor gen</w>
Präsent ationen</w>
K I</w>
ro om</w>
steh e</w>
op f
Gemein schaften</w>
Tourist en
w je
Ø </w>
un ho
-F e
Gar n
An griffe</w>
it äre</w>
Sta dion</w>
a is
ganz heit
Go eth
199 5</w>
bri dge</w>
Nah en</w>
off line</w>
konfigur iert</w>
Hom e
Tepp ich</w>
man gel
windig keits
ver teilen</w>
ish ing</w>
tour istischen</w>
R af
T M</w>
ap h
erheb liche</w>
an genen</w>
elle ktu
auf wand</w>
U C
mehr mals</w>
Rä der</w>
um gewandelt</w>
Dro gen</w>
Vergleich s
Agen da</w>
Kon g</w>
kommerzi ellen</w>
Kar din
Me g
Frie dens
zuläss ig</w>
Technolog ies</w>
Arch ä
Schu h</w>
LE S</w>
Moun tain</w>
Liechten stein</w>
An ruf</w>
freund lichkeit</w>
o sten</w>
stei gerung</w>
erte vent
Gam ing</w>
S ich</w>
An leitungen</w>
Be arbeitungs
Sens or
län dlichen</w>
verlän gert</w>
Proje ct</w>
Wilhel m</w>
Ch o
Commun ic
h eutzutage</w>
f lor
Rem o
rich tete</w>
stä tigkeit</w>
201 8-
intensi ven</w>
demokra tischen</w>
Elekt rische</w>
pal ette</w>
Sal es</w>
benö tigten</w>
Bewuß ts
Ru dol
Schrift steller</w>
geschäf te</w>
nied rig</w>
Zu liefer
Fra unho
zahl ungen</w>
perfe ktes</w>
t. Die</w>
fort zu
Lei h
ün scht</w>
el ine</w>
jähr iger</w>
Ä sthe
verd äch
schnit t
g ste</w>
Jako b</w>
e zi
Ch â
gener ation</w>
h art
Hot line</w>
Ku gel
Zimmer service</w>
voll kommen
iti on
S ol</w>
Lin z</w>
ök ologischen</w>
mat hem
op tion
ier bare</w>
di ck</w>
Ankün digung</w>
anspruchs volle</w>
pf legen</w>
ator ischen</w>
st ation
ungspro gra
C ater
Hol ding</w>
Associ ation</w>
199 7</w>
5 4
verwand eln</w>
Beg eister
d ress
Fil i
iz er</w>
Andre a</w>
grün dete</w>
re -
rei z
Re alisierung</w>
Ru e</w>
es .
attra ktiven</w>
Versch lei
In ser
ert al</w>
VP N</w>
D B
Zo o</w>
0 1-
betre uung</w>
men ade</w>
An strengungen</w>
fü t
Interpret ation</w>
faszin ierende</w>
L ig
M acht
gehör te</w>
deck ten</w>
T rü
EI B</w>
gr enze</w>
Motiv ation</w>
B ow
Gäste zimmer</w>
man chen</w>
Fu ertevent
Produ zenten</w>
Sand strand</w>
Erschein ung</w>
Fried hof</w>
für chten</w>
läu fig</w>
berei chs</w>
rau t</w>
verz ichten</w>
kal ender</w>
konfron tiert</w>
P ycckий</w>
Et was</w>
N ob
näch st
auf weisen</w>
E cken</w>
25 0
Hüt ten</w>
Eisenb ahn
sch a</w>
bau er</w>
Re view</w>
erneu tes</w>
ra ss
Bo dy
Spann ungs
So cie
fang s</w>
on de</w>
Zivil isation</w>
k rank</w>
H ong</w>
angemess ene</w>
In formieren</w>
Aus kunft</w>
hand els
ulti m
bi ologischen</w>
Hö hle</w>
Aufer stehung</w>
lan gleb
ch i</w>
unver züglich</w>
o die</w>
ums hot</w>
Laus anne</w>
-S ystems</w>
g ress</w>
J ul
Ha ck</w>
A CH
neu em</w>
1 30</w>
Re f</w>
B olog
-K an
S ale</w>
MP 3</w>
Komp ress
Cagli ari</w>
plat zes</w>
Lei b</w>
Wh it
Trop fen</w>
Betro ff
Aus fahrt</w>
stru mpfhose</w>
Ab u</w>
woh in</w>
g iger</w>
A lo
Sch ad
ath ie</w>
ech tes</w>
16 -
ge k
ver wir
verl iert</w>
Re chten</w>
reise datum</w>
ge wei
et .
Stre ben</w>
ji ang</w>
verb reiten</w>
O S-
Konfli kte</w>
Fran ken</w>
verschieden sten</w>
Weck service</w>
Ge duld</w>
vor nehmen</w>
Au ß
Offizi elle</w>
Jubilä um</w>
st ests</w>
da chten</w>
veranstal tung</w>
Kar ib
kontinuier liche</w>
Can on</w>
Sch ale</w>
Mar e</w>
da ch
Ital ia</w>
Letz tes</w>
Porzell an</w>
sprech ung</w>
lei den
Küchen zeile</w>
kre ativen</w>
kri tische</w>
Sen i
groß vater</w>
f eine</w>
-Sti l</w>
Gran de</w>
k w</w>
B lättern</w>
Zü ge</w>
er re
ausgezeichn eter</w>
Gar der
Vermie ter</w>
Ele gan
Regel ungen</w>
all mäh
neh me</w>
z ent
be anspru
wei che</w>
ogra mm</w>
G .</w>
dow n</w>
Arbeit nehmer</w>
Bron ze</w>
jü dische</w>
lo ses</w>
erinn ere</w>
Antik e</w>
zentr aler</w>
Be griffe</w>
An ne</w>
Chr .</w>
S eil
aus gabe</w>
bewus st
hard core</w>
h o</w>
Ver zö
Phot ovolta
Befest igung</w>
Holz produkte</w>
Gew ähr</w>
gesetz lich</w>
be antwortet</w>
b lieben</w>
Business -
frequ enz</w>
E AN</w>
-S yn
da zu
Bi o</w>
Ot to</w>
persön licher</w>
ress ourc
Ensem ble</w>
Objekt -Nr</w>
ul iert</w>
aus .
S C</w>
Ster ling</w>
phys ische</w>
Fa x
Ge gen</w>
geschn itten
Rezep t
Bi t</w>
iPo d</w>
über trag
vis ion
LO G
iti </w>
wirt schaf
ko k</w>
L C</w>
dag og
Audi o-
Er sten</w>
st an</w>
ch at</w>
y t
D AT
F lan
be treffen</w>
Mün ze</w>
ver haftet</w>
Zwe cken</w>
¤ </w>
Anges ichts</w>
Familien zimmer</w>
Fuertevent ura</w>
r ige</w>
online- Casinos</w>
Strei t
Consult ing</w>
san ft</w>
G T</w>
Veranstal ter</w>
H ut</w>
les bische</w>
K ru
Che mische</w>
Schnei den</w>
s or</w>
P isa</w>
Verring erung</w>
F lö
Ro uter</w>
O ld</w>
auf bauen</w>
Mun ich</w>
durch messer</w>
Sho w
Ma ssen</w>
Beding ung</w>
L äch
Nor mal
E state</w>
Mon aco</w>
milli on</w>
k len</w>
wieder holen</w>
hei lige</w>
Skulpt ur</w>
si mul
vorhand ene</w>
hö l
Progra m</w>
Daten verarbeitung</w>
art a</w>
H N
blo wjob</w>
ex akt</w>
orien tiert</w>
N eut
p ur
A achen</w>
Techn ischen</w>
Vor bild</w>
L ab</w>
erfahr ung</w>
la stung</w>
Ak teure</w>
MAR E</w>
west lich</w>
t at
O hr</w>
entsp annt</w>
Wäl der</w>
Iden tifiz
in c
Bu g
In sel
Tor re</w>
schw ache</w>
el f</w>
Ro und</w>
Urlau ber</w>
Ti rol</w>
Back up</w>
besitz er</w>
stra tionen</w>
8 7
Afghan istan</w>
Hand lung</w>
cont ent</w>
jen ige</w>
Panz er
komp akte</w>
oh le</w>
hot el
Agrituris mo
a ges</w>
K E</w>
Matth ias</w>
G ATE</w>
bo hr
W ater
Be qu
ck y</w>
Ro ber
Stra fe</w>
Mor gen
G ER</w>
I E</w>
il der</w>
Bo o
Ein nahme</w>
befriedig ende</w>
ein kaufen</w>
Sch ild
Bü chern</w>
angem essen</w>
de aktivieren</w>
C ase</w>
A wards</w>
ag u
as i</w>
Ver dau
Train ing
L S</w>
Er häl
Shr ine</w>
Potenti al</w>
unter teilt</w>
Go ur
kin der</w>
Haupts itz</w>
zeitgenöss ische</w>
nör dlich</w>
B eut
6 6
Champ agner</w>
sp en
Flughaf entransfer</w>
hy drau
Außen minister</w>
D o</w>
Che ck
grün dung</w>
In je
Hand schuhe</w>
ver mehr
De v
---- ----
at ri
poln ischen</w>
Pet rus</w>
ger -
gel angt</w>
sp iegeln</w>
Mö bel
etabl iert</w>
Produkt -
Verb and</w>
Kapit alismus</w>
Er r
chn er</w>
Industri al</w>
be fand</w>
Kompet enz
o z
ho u
Le e</w>
bel euchtung</w>
Automobil industrie</w>
mot oren</w>
be zauber
Jeh ova</w>
bess eres</w>
P le
al s
Le gende</w>
GP S-
schnell ste</w>
fän gt</w>
G rä
pol iert</w>
mis ierten</w>
Vertret ern</w>
mäch tigen</w>
An ony
Batter ie
Regi sterk
ra ft
Feh lern</w>
bemü ht</w>
jähr liche</w>
C lass</w>
Schnei der</w>
bes ie
Württem berg</w>
to ur</w>
Di kt
E hem
Rat haus</w>
Kind heit</w>
Wün schen</w>
it ären</w>
Kor ea</w>
tig sten</w>
T am
re de</w>
Residen z</w>
K S</w>
vari ante</w>
bro wser</w>
St ät
Persön lichkeiten</w>
Kop enhagen</w>
Angele genheit</w>
Reise zielen</w>
phar ma
tig ste</w>
genau en</w>
Wider ru
Motor räder</w>
Char lot
li mi
nu mmern</w>
steigen den</w>
de g
dokum entiert</w>
gehol t</w>
Po ol
lo y
bi ologische</w>
ch a</w>
Ziel gruppe</w>
Funktions umfang</w>
At ta
schwer er</w>
bew undern</w>
Re ad</w>
In -
A ktive</w>
Mar sei
er hol
D as
G el</w>
Mar y</w>
la y</w>
gefei ert</w>
be dingt</w>
An zeichen</w>
El tern
Stat t</w>
Gef ähr
dün nen</w>
Handhab ung</w>
oft mals</w>
dies mal</w>
Verschlüss elung</w>
bl ut
r in</w>
Wasch becken</w>
men schen</w>
DE S</w>
Besch ä
ung stechnik</w>
mite e</w>
ator ium</w>
Blumen laden</w>
F H</w>
Nachfol ger</w>
um liegenden</w>
er .
K är
k tem</w>
Pol izi
gi ti
einzel ner</w>
wi dmet</w>
ob en
Herstell ern</w>
spro gramm</w>
Bi det</w>
Dritt anbie
dau erte</w>
M annes</w>
Manu fa
klin ischen</w>
medi en</w>
gg f.</w>
-S et</w>
hö fen</w>
könn en.
Zylin der</w>
Fol ie</w>
Ge denk
Kom miss
Car l</w>
Ehr en
u al</w>
Wer ner</w>
ci ón</w>
K anz
häuf iger</w>
seit ens</w>
ter ungen</w>
Fein d</w>
modu l</w>
kauf ten</w>
Abrah am</w>
K ON
di s</w>
Bestand teile</w>
Schul ter
at o
cre me</w>
bes etzt</w>
ko pf
pak et</w>
P umpen</w>
on es
me d</w>
bu te</w>
umzu setzen</w>
sur -
West f
auf einander</w>
bra ch</w>
Re kor
str eng</w>
kategor ie</w>
kti k</w>
soll t</w>
entschie d</w>
O g</w>
übri g</w>
schnit ten</w>
wei blich</w>
halten e</w>
Spiel platz</w>
ab gelegt</w>
fanta stische</w>
Schn ell</w>
Wir bel
aus bildung</w>
ger aten</w>
Ka sten</w>
G H</w>
C rist
igh ts
ator s</w>
ti l</w>
Besu che</w>
kul ation</w>
AU TO
Auftrag geber</w>
av en</w>
zi vil
Besei tigung</w>
park platz</w>
n ale</w>
hil f
on ische</w>
herr scht</w>
Inse kten</w>
sch ütz
Vin c
Skulpt uren</w>
Lit tle</w>
sh or
oper ative</w>
Komm and
TRA DE
Tablet s</w>
le d</w>
Beglei ter</w>
fro h</w>
Gepä ck</w>
C P</w>
Nachhal tigkeits
o gen</w>
Ergeb nis
ter es</w>
Fried rich
C es
umge kehrt</w>
Fla gge</w>
F Ü
Rep ort</w>
ger einigt</w>
w ände</w>
Rei s</w>
gä ste</w>
Trin ken</w>
Ernähr ungs
minü tigen</w>
la gerung</w>
Bet riebe</w>
Hä fen</w>
exzell enten</w>
be zahl
V alle</w>
ung sto
5 .000</w>
elt a</w>
es ervice</w>
Fe tish
priv at</w>
vi c</w>
Minim um</w>
bü gel</w>
Exp an
durchschnit tlichen</w>
kre bs</w>
A sp
G lie
Premi ere</w>
P a</w>
P ir
DVD -Player</w>
la sst</w>
Schwei zer
hin auf</w>
Ein blicke</w>
geh är
ifiz ierung</w>
Unter wäsche</w>
R ent</w>
Ab teilungen</w>
ver hält
Kabel kanäle</w>
Ch ef
Anmerk ung</w>
Fei er</w>
eng agiert</w>
Mo sch
herausra gende</w>
Server n</w>
j ing</w>
an pass
La den
P ER
Cro ss
poli zei</w>
p ünkt
H S
leh nen</w>
Got t
il e
co u
kor e
Ewi gkeit</w>
je glicher</w>
Agriturismo .it</w>
Ursp r
ge druckt</w>
ip ment</w>
Er halten</w>
Se kund
Li mo
For ts
osi tionen</w>
Zu kunfts
gab en
EB IT
mittelalter lichen</w>
Ev a</w>
auff äl
Rol and</w>
bestimm ung</w>
gel ebt</w>
m obil</w>
werk s
Plat ten
0 2-
Sc an</w>
Innsbru ck</w>
miss t</w>
Stra hlung</w>
Li ppen</w>
F or</w>
abonn ieren.
wick elt</w>
stu dien</w>
w all</w>
Sien a</w>
Ly on</w>
kostenlo sem</w>
R E</w>
F it</w>
Ta ten</w>
hol z
Ruck sack</w>
Peters burg</w>
wei blichen</w>
Sh ampo
f ung
Ir r
da t</w>
lik ationen</w>
engl ischer</w>
lat ex</w>
Kon ten</w>
Dem o</w>
da vor</w>
ein iges</w>
Stüh le</w>
iv al
be tragen</w>
aus einander
gen es</w>
zäh lig</w>
el ing</w>
Sal on</w>
ati erung</w>
an y
sin gen</w>
stell vertret
F ull</w>
Weiter en</w>
et tet</w>
aus gelöst</w>
J em
Empf ohlene</w>
Produkt es</w>
regi ster</w>
reich lich</w>
Po ster</w>
Erhäl tlich</w>
Auf t
be freien</w>
.c n</w>
Dubrov nik</w>
Ger uch</w>
d lichkeit</w>
yn ä
attra ktiv</w>
.0 00
Sp ons
herr sch
gegen seitig</w>
Gel b</w>
se mi
K T</w>
elektr isch</w>
SP OT</w>
ev a</w>
be merkt</w>
Geh äus
Datein ame</w>
gef är
bo ot
Gu ar
tet es</w>
ur e
flie ßen</w>
Herstell ers</w>
Vorschau Merken</w>
P umpe</w>
enb ol
Trau m
Lö cher</w>
Logi k</w>
Arbeits gruppe</w>
kat alog</w>
d ri
ter te</w>
ehr lich</w>
j etz
D sch
an zug</w>
flä ch
Dolomi ten</w>
St reich
p ern</w>
e ber
WES TERN</w>
kommerzi elle</w>
zz o</w>
sk irt</w>
K ids</w>
Fetish Shrine</w>
ähl ige</w>
Ren ov
Gra v
Fass ade</w>
r al</w>
Cal a</w>
typ en</w>
ord nungen</w>
K ast
p .</w>
luxuriö se</w>
Agr ar
H ex
sa ison
ens ystem</w>
ol u
hab </w>
AC K
sch wimmen</w>
mehr fach</w>
Man chester</w>
Sti ft
Kreu zung</w>
O st</w>
forder te</w>
ver ein</w>
Yo ung</w>
S mit
W e</w>
zy lin
stärk sten</w>
über qu
Brosch üre</w>
Mi x
Dien sten</w>
Hand werk</w>
an ie</w>
bar em</w>
th ur</w>
politi sch</w>
ein la
Flu sses</w>
Bra un
Bri dge</w>
wat ch
B AS
Amer ica</w>
m yst
Ander s</w>
Online- Glücksspiel</w>
Stär ken</w>
kli ck</w>
ver lu
Meer es</w>
Beteil igten</w>
ten dlich</w>
c ir
dies jährigen</w>
F RA
Prakti ken</w>
bedeut enden</w>
höch st</w>
ck el
S Y
stern is</w>
Tel es
en ni
be schei
Mar ath
Ziel en</w>
Öffent liche</w>
Et wa</w>
Berich ter
beruf lichen</w>
ewi gen</w>
So ft</w>
I C</w>
K und
n ing</w>
n y
bo ards</w>
ge misch
größ ter</w>
Tra ge
l ight</w>
Organ e</w>
lich -
be gegn
Haup t</w>
Finanz ierungs
B lat
bequem en</w>
Eben falls</w>
regi onen</w>
erweiter ten</w>
vor an
bein ahe</w>
D einstallieren</w>
d in</w>
Aus rüst
Innov ation
Sp re
ol in</w>
Proph et</w>
Pfe ffer</w>
Ab senden</w>
Dienst leistungs
Promo tion</w>
Journ al</w>
-K lasse</w>
Kan didaten</w>
organ ischen</w>
i z</w>
wei len</w>
Nan o
k lu
‹ </w>
an frage</w>
ET H</w>
Da im
0 10</w>
Vin yl</w>
Al pen
ab weich
bla ck</w>
la de
ger ade
Bo gen</w>
wei bliche</w>
imm obil
Ma j
TRADE GATE</w>
kap azität</w>
ra ffin
le eren</w>
gla s
in dischen</w>
beruf liche</w>
separ at</w>
g läub
E ure</w>
ta xi</w>
Li br
Ju da</w>
De ck</w>
Kre bs
H ur
dj shop</w>
SQ L</w>
Wissen schaften</w>
Stat t
ktiv itäten</w>
fei er</w>
Mo unt</w>
vern ün
zusammen gestellt</w>
W olle</w>
Stre cken</w>
sp rung</w>
bei der</w>
Auf kleber</w>
aufent halt</w>
³ </w>
mal erischen</w>
mach ung</w>
bei getragen</w>
abonnieren. Ich</w>
Schrei be</w>
ktiv es</w>
üt t
Tex tilien</w>
vorzu bereiten</w>
Kunden kommentare</w>
Za dar</w>
komp liz
Sp ritz
R FI
e sten</w>
F ort</w>
natür licher</w>
infor MARE</w>
L ohn
fil tern</w>
er Innen</w>
fer enzen</w>
us ine</w>
Tor on
Au dit
Hier zu</w>
WLAN- Internet</w>
o g</w>
l ie</w>
kompati ble</w>
Fin dr
Downlo ad
ut o</w>
Vor les
ogra ph</w>
iTun es</w>
digit al</w>
Yo ur</w>
1. 1</w>
f it
itz er</w>
Ex empl
r ein
Doma ins</w>
8 00
D oll
A h
Durch stöbern</w>
S eien</w>
beträ cht
zw ingen</w>
Del i
‘ </w>
brü cke</w>
Veröffentlich ungen</w>
Ver län
dio x
z wischen
Sp enden</w>
Dom Findr
DomFindr .net</w>
Pil ot
Reco very</w>
br ennen</w>
U .
vertei digen</w>
auf gang</w>
Hier bei</w>
verständ nis</w>
N iemand</w>
Tr enbol
bra sil
lin ke</w>
t rü
M is
B ase</w>
schrift liche</w>
Endr einigung</w>
Bisch ö
A ku
inter est</w>
Pal ästinens
o ch
arch ä
Magaz ine</w>
Bang kok</w>
Ch ips</w>
w ein
gehens weise</w>
Mar io</w>
minist eriums</w>
Mag ie</w>
ern d</w>
enk arte</w>
Villa s</w>
c an
Ben ch
irgend eine</w>
Ein kaufen</w>
ausger üstet</w>
Haf tungs
R A</w>
Mel dung</w>
Sol o</w>
E W
C o</w>
Aus dauer</w>
festiv al</w>
gol denen</w>
grei ft</w>
-Bl umen
Z ieh
Wetter bedingungen</w>
Geist es
forts etzen</w>
veranstal tet</w>
sch eln</w>
D M</w>
Po in
sch ungen</w>
S co
ign on</w>
stra hlen</w>
Ran som
ier ender</w>
er teilt</w>
setz ungen</w>
Mi ami</w>
Mon ta
voll zählig</w>
am -
Fest stellung</w>
Hoch leistungs
Hal sk
T ruppen</w>
Pok er
200 9-
7 9
Astr on
person alisierte</w>
art h</w>
KP Ch</w>
W ille</w>
einger ichtete</w>
sicht bare</w>
I stri
c ul
Ha ken</w>
kräf tig</w>
Z em
Rech enz
ar tig</w>
A sh
Part y
Coun try</w>
Konsequ enzen</w>
seh er</w>
Op tics</w>
ber ät</w>
ion e</w>
Rei fe</w>
u x
Halb pension</w>
erg reifen</w>
B og
schwarz em</w>
sch aut</w>
ho ven</w>
nie der</w>
fr öh
Kunden dienst</w>
Kontra st</w>
ist in</w>
wür fe</w>
I mpf
A P</w>
HT C</w>
K asse</w>
Leu chten</w>
kein es
ag ing</w>
bezieh ungsweise</w>
doppel te</w>
such ung</w>
no chmal</w>
4 0-
Aus maß</w>
ag on
ro ck</w>
Erlau bnis</w>
Be weise</w>
s äure</w>
ges onder
Phil harmon
M aler</w>
Kla vier
Kaffe e-</w>
Goeth e-
in hal
tz -
pro be</w>
Les bisch</w>
Ran de</w>
Gewerk schaften</w>
ma ten</w>
schwei zer
Ankunfts zeit</w>
militär ischen</w>
a dap
Sor te</w>
Compu tern</w>
K E
L ight
R ES
ent hül
sy s</w>
konsequ ent</w>
S om
T P
un ken</w>
Begeister ung</w>
F utter
Göt ter</w>
k etten</w>
bon us</w>
Ta x
Sorg falt</w>
Mark et</w>
schwier iger</w>
asi atischen</w>
Kohlen hydra
pe ople</w>
er isch</w>
up skirt</w>
win digkeiten</w>
bur y</w>
bewer ben</w>
drü ckung</w>
zurück ge
V ogel</w>
sal on</w>
A AA</w>
sauber e</w>
loszu werden</w>
Dis ney</w>
reg ungen</w>
satz es</w>
K ut
t her</w>
S AN
reis ende</w>
Autom otive</w>
Gen o
Industri elle</w>
lok al</w>
enti erte</w>
Wander ung</w>
Bra sil
ther apeu
Gedäch tnis</w>
Tab ellen</w>
zz gl</w>
transpor tiert</w>
neg ativ</w>
zeitgenöss ischen</w>
or ia</w>
r einigung</w>
vi ol
re gung</w>
Isra el
se ktor</w>
Auffass ung</w>
ro ll
flo w</w>
Fo ot
i elle</w>
Pin k</w>
Che ck</w>
über leben</w>
ver treter</w>
Schott land</w>
Stor y</w>
Gesch ick
S H
S äm
Install ationen</w>
pro gress
Brau t</w>
Stand ort
Deta ill
Medi a
N ä
P al</w>
an tik
ök ologische</w>
gegen über
ma sturb
beur teilen</w>
-F enster</w>
Pla s
-Ver hältnis</w>
hal f</w>
o is</w>
An d</w>
Amin os
sol ide</w>
langfri stigen</w>
Go et
den falls</w>
Tisch t
spann ungs
dunk el</w>
vern etz
Rett ungs
co des</w>
klein ste</w>
Haf t
kti er
kor b</w>
ie bt</w>
c ca</w>
B en</w>
S änger</w>
L ong
spro zess</w>
K ret
k riterien</w>
St al
Start -
Bade mantel</w>
v is</w>
haf tigkeit</w>
kir ch
th is</w>
Wirk ungs
R ass
erwar tete</w>
Deutsch land
Y e
eh enen</w>
H och</w>
aufge hoben</w>
Über prüfen</w>
S än
Konzep tion</w>
f är
ein fügen</w>
lang jährige</w>
nehm enden</w>
wirk same</w>
Adri a</w>
wirk ungs
s burg</w>
Flor ist</w>
stra pon</w>
Wikip edia</w>
st r</w>
spiritu ellen</w>
W ater</w>
V IS
op er</w>
sh ire</w>
Qual itäten</w>
E X</w>
wander ung</w>
Asi atisch</w>
Jer ez</w>
Ein zahlung</w>
Eta ppen</w>
ein loggen</w>
enk ap
fel dern</w>
Tre ffer</w>
ter a</w>
y on</w>
6 ,00</w>
zusa gen</w>
grenz ung</w>
mati en</w>
Entschei d
ober e</w>
N ok
Dat ent
9, 90</w>
s ent</w>
ber -
Gan ze</w>
y .com</w>
Minist er
u i</w>
w ör
Mü he</w>
G let
Fün f</w>
Par iser</w>
lei det</w>
Einkaufs zentrum</w>
Leg ierung</w>
f ein</w>
de aux</w>
l ein</w>
au l
Ser ien</w>
Hotel zimmer</w>
ar me</w>
Sa ison
ei stern</w>
tradition ell</w>
z y</w>
mm es</w>
Giov anni</w>
ent ation</w>
un bekannten</w>
Kon jun
Persön liche</w>
be sei
Exper te</w>
sen dung</w>
Sa ar
tiv </w>
ie d</w>
E G
Search .
Land schafts
E y
kom fort</w>
Sch lö
mo de</w>
Umwand lung</w>
Denk mal</w>
enor me</w>
Win 32</w>
betre ut</w>
Ger ne</w>
Ge misch
0 er</w>
Mu ster
f tigen</w>
C and
schei ben</w>
ens u
Pho en
günst iger</w>
18 ,
änder ung</w>
9 02</w>
erle ader</w>
Fin ale</w>
eu cht
Satell iten</w>
nah en</w>
oper ativen</w>
kos me
ff el</w>
ide aler</w>
ak a</w>
zwei t
Scre en</w>
iden tisch</w>
um geb
Sohn es</w>
sp itze</w>
For ce</w>
tag on
Updat e-
ss icherheit</w>
ha ar
Teppich boden</w>
Bes at
Lan de
X Babe</w>
u mmer</w>
Sta dium</w>
aktiv er</w>
wir d.
er schwing
z ielt</w>
J as
To de</w>
Helsin ki</w>
PR O</w>
i ro</w>
K el
i op
S wiss
R é
Se el
unter einander</w>
Beglei tung</w>
- Technologie</w>
Le gen</w>
sch mu
den er</w>
Tr enn
z elle</w>
Marsei lle</w>
lamp en</w>
gen utz
Toiletten papier</w>
Dire ctor</w>
Mala ysi
at em</w>
st op
War te
De cken
C ell
Miner alien</w>
Übernach tungen</w>
ru </w>
U-B ahn</w>
Col or</w>
Wei ch
Holl y
ein nehmen</w>
Spezi fikation</w>
Si mp
abge deckt</w>
Behinderten freundlich</w>
br es</w>
Wort es</w>
Qu ick
p ut</w>
Sich er</w>
Gerä te
La ge
verurs achte</w>
G än
Bil des</w>
zip lin</w>
beeindruck ende</w>
Lab els</w>
Baum woll
angel eg
jahr es</w>
stud iert</w>
frei em</w>
flexi blen</w>
la t</w>
h u</w>
Einsch ränkung</w>
seit dem</w>
Portuguê s</w>
Yo utube</w>
schw ank
Gesetz es</w>
Cha os</w>
Westf alen</w>
v ar</w>
- Funktion</w>
Toron to</w>
Bou le
k in</w>
bedeut endsten</w>
Z war</w>
Qu een</w>
Urlau b
Befeh le</w>
Wel come</w>
c .
st s</w>
bestän digkeit</w>
N EU</w>
D U
en ner</w>
M ER
spa ce</w>
christ liche</w>
au spro
Fähr en</w>
Jür gen</w>
g nisse</w>
b b
co -
mi schung</w>
schein bar</w>
über wäl
wissenschaft licher</w>
ag ue</w>
Po d
R inge</w>
Ges etzen</w>
Ste el</w>
bre m
werk zeuge</w>
Extra kt</w>
Zun ahme</w>
Agrituris mo</w>
S D-
deck ungen</w>
E asy</w>
Polizi sten</w>
Dam en
un gewöhnliche</w>
will ige</w>
länger en</w>
Organis mus</w>
Japan isch</w>
Ch lor
la g
h aut
Li fest
Bildschir m
mal es</w>
A F
ch tige</w>
Vir gin
Daten bank
T .</w>
stän der</w>
aus einander</w>
A t</w>
Woh nen</w>
ern de</w>
stimm e</w>
hal testelle</w>
Parla ment
P end
E re
B ele
B ein
beob ach
á n
ge stiegen</w>
elem ent</w>
Instand haltung</w>
mel zen</w>
le hren</w>
Euro -
verkehr s
langs amen</w>
Scha den
Portug ies
Slo t</w>
Fin an
sin d.
Ein spar
Überra schung</w>
Deutsch es</w>
Nach wu
ap ost
0 9-
il en</w>
techn ologischen</w>
ham ster</w>
Ver langen</w>
an schließ
R itu
komm st</w>
199 6</w>
k .
Re qu
u v
umfang reiches</w>
ol iti
yp t
Hinder nisse</w>
Produ ct</w>
plat z
inter aktive</w>
lo ch</w>
Diam ant
Humbol d
be vor
zwe cke</w>
Wohn bereich</w>
Mess ing</w>
C e
M ama</w>
är m
Ben j
Cent ro</w>
Mar mor</w>
mü de</w>
Sch auf
ver ank
bl ume</w>
schul dig</w>
st ur
tr enn
5 8
blo ck</w>
Ath le
wid men</w>
schaft lich</w>
Flor a</w>
Ver stärk
Widerru fs
a w
p läne</w>
um so</w>
fir ma</w>
weiter zu
-B ild
as is</w>
Di vi
rechn et</w>
Voy eur
nö tige</w>
oft ware</w>
ograph ische</w>
in ische</w>
Glas fas
T RI
un denen</w>
je kt</w>
ol ischen</w>
Er mäß
Merk mal</w>
enz o</w>
di agra
Innen raum</w>
u hren</w>
Vari ablen</w>
mi s</w>
For ex-
Sch ützen</w>
komm ende</w>
Kl einen</w>
Schul ter</w>
dro m</w>
gewohn t</w>
f euchtigkeit</w>
Mar gar
jen em</w>
be teiligen</w>
-F est
Ma p</w>
Dort mund</w>
digit aler</w>
Män gel</w>
unterschied lichsten</w>
Etik etten</w>
ur g</w>
tra fen</w>
ei le</w>
Lei d</w>
19 90</w>
Rea der</w>
fe ster</w>
an hänger</w>
B innen
Hel m</w>
train ing</w>
ätz ungen</w>
liter atur</w>
Grü ne</w>
verschie ben</w>
Anti bio
Ro ss
Glo ss
An regungen</w>
wieder herzustellen</w>
Vo ith</w>
Frankfur ter</w>
Medi cal</w>
ge krön
vorauss ichtliche</w>
Govern ance</w>
og al
mi ge</w>
ge fordert</w>
Spezi elle</w>
Jav a</w>
Schö pfer</w>
Rel ais</w>
sch ild</w>
ent echn
spro zesse</w>
zukünf tig</w>
Ja vier</w>
g ießen</w>
HO ME</w>
2 .000</w>
Park ett
Er hebung</w>
Rab atte</w>
DLL s</w>
Bo ston</w>
Maschinen bau</w>
est and</w>
i anischen</w>
Ver sprechen</w>
Schlaf sofa</w>
th aus</w>
Hun de
bul gar
rei f</w>
bab y</w>
H alt</w>
S L</w>
par tic
er iff
ber ühren</w>
wesent licher</w>
9 65</w>
t ab
Jahrzeh nte</w>
it el</w>
Str ing</w>
es .com</w>
län der
1. 2</w>
Cap ital</w>
re ale</w>
1, 2</w>
I g
kü mmert</w>
dunk le</w>
beg eistern</w>
Er g
Dar k</w>
Inn ere</w>
ei ver</w>
ü pp
w ählt</w>
Cap </w>
ot o</w>
prot ok
Or gel</w>
dem selben</w>
ron ics</w>
verk ür
Oce an</w>
Beru fung</w>
Gre at</w>
-K abel</w>
iz ität</w>
männ liche</w>
- L
ver fahr
or ch
A lex</w>
Monitor ing</w>
Nov a</w>
p i
Emiss ions
G RA
enor m</w>
ein stellung</w>
Web cams</w>
Car tier</w>
T ore</w>
Sp alten</w>
V ok
fas ste</w>
arch iv
Amate ur
wa sch
zwei ter</w>
Oli ver</w>
Virtu elle</w>
Grü nen</w>
in folge</w>
besch riebenen</w>
Worl d
D el</w>
ut es</w>
du s</w>
stü r</w>
Gehir n
sp lan</w>
ran che</w>
B utter</w>
y ing</w>
a e</w>
Sk al
Schlag wort</w>
ad el
Ch ip
versch mutzung</w>
Alt ar</w>
P N
mi um</w>
lau ch
klär en</w>
erstklass iger</w>
[...]
